00
00
02
03
01
FF
00
FF
01
02
00
FF
FE
00
FB
FB
FC
FE
FF
00
01
FE
01
02
01
FF
01
01
01
02
02
FF
02
00
02
FE
01
FF
FE
FF
FE
02
02
FF
FF
FE
FF
FD
FF
FF
00
02
FF
FF
01
FF
01
01
00
02
01
FF
03
01
02
FF
FD
01
FF
06
06
FF
FB
02
05
01
02
FF
01
01
FF
FE
FF
00
01
FF
01
01
02
01
FE
02
00
FE
FF
05
01
01
07
06
02
FF
08
04
00
01
04
00
FD
FF
02
00
02
FF
00
FF
00
02
FF
02
01
FF
00
02
FE
FE
06
0B
09
07
00
FB
F9
FC
04
03
01
01
01
01
FE
00
00
00
01
03
00
FE
FE
03
03
03
FD
03
07
08
0B
0D
0B
07
FF
FC
00
04
03
01
01
FF
01
00
03
FE
FE
02
01
00
FD
03
06
FB
FE
03
08
0A
09
0B
10
0A
03
01
FD
03
FC
FE
01
FD
FF
00
01
00
FF
03
01
00
FD
03
08
FF
07
05
05
01
F9
FE
01
FF
FB
03
FB
01
FC
FB
01
01
FE
FF
02
FF
01
03
03
00
FC
00
0D
FD
F7
FE
05
FD
F7
FE
F7
F6
FB
FE
02
02
FD
FE
FE
00
00
FF
00
00
03
FD
00
FA
FC
FE
01
00
FE
03
00
04
08
07
FE
F8
FF
F8
FE
07
05
01
FE
01
00
FF
00
00
FD
FD
FD
FB
FD
03
04
0B
01
FD
F8
F3
F3
FB
02
00
02
FE
FB
FF
02
FD
FD
FD
00
FF
03
01
01
FA
FC
00
00
02
07
06
00
FC
F9
F7
EF
F4
FA
FC
F5
F7
00
F9
FE
FC
FF
FE
02
00
FF
00
FE
FB
F9
FD
F9
05
06
03
0A
FF
FA
04
FE
FE
F4
FA
F4
F9
01
FD
00
FF
FF
FF
01
FF
FF
FF
FD
FA
FC
FE
F7
FD
FD
FD
09
FF
FF
FB
F4
F7
FD
FA
FC
FC
FB
FB
03
FE
FF
FE
02
01
01
FF
FB
F9
FD
FC
FB
F7
F9
FB
FE
F8
F9
FD
FD
FC
FF
00
F2
FA
FB
F9
FD
FD
FF
FD
00
FF
FE
FE
FD
FE
FB
FE
FE
F8
FC
02
00
FF
FC
FB
FF
FC
F9
FB
F9
FC
F8
FA
FB
FB
00
FD
02
00
FD
00
FD
FF
FB
00
01
00
00
08
05
06
00
F8
F8
FC
F8
F2
FA
FD
F9
00
01
FF
FD
00
02
00
FF
FE
02
04
FF
FF
FA
FC
F8
FD
FD
FC
FE
F9
FA
F8
F3
F9
FC
FD
F9
FD
FC
01
FD
01
02
03
FE
01
03
01
01
FD
F8
F8
FD
00
FB
F4
F6
F3
FA
F8
F7
01
00
FF
FE
00
FD
00
01
00
00
FF
FE
FF
01
01
FF
FC
FB
FF
FE
00
FE
FB
F6
FC
00
FC
FC
FB
FE
FD
FD
00
FB
FE
02
00
02
03
FE
00
FC
FF
01
FC
FA
F8
00
00
FF
FB
FF
06
0B
03
02
FD
03
FE
FE
01
00
01
01
00
02
00
01
FF
01
06
07
08
FA
FE
03
02
07
05
06
FF
FE
FE
00
FE
03
02
01
01
FF
FE
FF
FD
03
02
FF
FF
FF
FF
FB
FA
F5
F8
FC
F9
F6
F3
F6
F7
FA
F9
FD
FD
FD
02
FF
FF
00
00
00
FD
01
00
FE
02
FE
00
FE
FB
F7
EF
F4
F5
F7
FB
FA
FC
FB
F8
FE
FD
FE
00
FE
FF
02
FE
01
FE
02
02
FF
01
FE
02
01
FF
00
FF
01
FC
FB
00
05
03
06
07
03
05
05
01
04
02
FF
01
01
FF
01
FF
00
FE
FF
FF
01
01
05
05
02
04
04
05
06
09
08
0C
08
04
03
03
02
FE
00
00
01
FE
00
00
02
FF
02
FE
00
FF
00
FF
00
00
00
01
01
04
03
03
FF
FE
FE
00
02
00
FE
02
00
FE
FE
02
02
FE
FE
01
FF
01
FE
FF
FE
00
FD
00
FD
FF
FE
00
FF
FF
01
FE
01
00
FE
02
FE
00
FF
FE
FF
FF
02
FE
02
01
02
02
01
FF
02
FE
FE
02
00
02
00
01
FF
00
FE
FE
00
01
00
FF
01
00
00
FF
FF
00
01
01
01
02
01
FE
FE
FF
FE
FF
01
01
FE
00
FF
FF
00
01
FE
01
01
01
00
FE
FF
01
FE
01
FE
00
FF
FE
FF
00
02
02
FF
FF
02
01
FE
FE
FF
01
FF
01
FF
FD
FF
FD
01
FF
FF
02
FE
00
FE
01
00
00
00
FE
FE
FF
FF
FD
FD
FC
FD
FD
FE
00
FE
FE
01
FD
FE
00
FE
FD
FF
00
01
00
01
00
FF
00
01
FC
FC
FA
FA
FB
FB
FF
01
00
FE
FD
00
FD
FD
FF
FF
02
FF
FF
01
FF
00
FE
FF
FD
FE
FB
FD
FA
FA
FA
F9
00
03
04
FA
F8
FA
FA
FB
FA
FF
00
01
FE
FD
FE
01
01
01
01
00
FF
FB
F9
FB
F8
F8
F5
FA
00
02
FD
F8
F6
F9
FB
FE
FF
FD
FB
FD
FF
FD
01
00
00
01
02
FF
FF
FA
FB
F7
F6
F9
FE
03
07
03
05
05
FE
F8
F8
FE
FE
FB
FC
FF
01
FF
01
FE
01
01
FE
00
F9
FC
FE
FC
FC
04
03
FF
FE
FC
02
03
FD
F7
F7
FE
FF
FD
FE
FE
FE
01
FE
01
02
FF
FE
FD
FC
FB
FF
02
04
01
FC
F9
F6
FB
FD
FD
F8
F8
F7
FA
FA
FA
FA
FF
00
FD
FE
FF
02
FF
FE
F9
FA
FB
FC
02
FC
F9
FD
FD
FE
FC
00
FC
FA
F7
F0
F1
FB
FD
FB
FC
01
01
FE
01
FF
FE
FC
F7
F6
FC
00
01
FD
F9
FF
00
00
FF
F8
F9
F4
F1
F5
F5
FA
FA
FD
FF
FE
01
00
01
02
FF
F9
F5
F8
FA
FD
F8
F8
FA
FE
03
FF
F8
F3
F4
FA
F8
F5
F9
FB
FE
FC
FC
FE
01
FE
FF
FF
FB
F4
F0
F0
F0
F6
F9
FA
FA
F9
F7
EF
ED
F1
F6
F8
F9
F8
FA
FC
FF
FE
FA
01
02
00
FF
00
FB
F5
F0
EE
F2
FA
01
06
FF
FB
EA
E8
EB
F6
F6
F8
F6
F9
FF
04
04
FE
FF
00
01
01
01
FE
FB
FB
FA
F5
F6
FA
00
FF
FA
F2
E8
E9
EE
EF
F4
F7
F5
FA
02
02
00
FD
FE
01
FE
FF
FF
FE
FA
FA
FB
FC
F9
F6
F8
FA
F4
ED
E9
EB
EE
F1
F5
F9
FD
02
02
01
FF
FD
FE
FC
FE
01
FF
FD
FD
00
FC
F9
FB
F9
FA
F7
F2
ED
EC
EF
F6
FB
01
00
03
00
01
00
01
FF
FD
01
FE
00
FE
FE
FC
FC
FA
F8
FC
FE
02
00
FC
F4
F6
FD
01
07
06
01
01
00
01
FE
FE
FE
00
FE
01
FD
FF
00
FE
FE
FF
FC
FD
00
07
07
03
04
05
09
09
06
01
03
01
03
FF
00
05
00
FE
01
FF
FF
FF
FD
FC
FB
FD
FD
FD
02
05
06
03
01
04
03
01
FE
00
FE
02
03
05
05
01
04
01
01
FD
FD
FE
FE
FB
FD
FA
F6
F8
F5
FA
FC
FF
01
00
FE
FE
FC
FF
FB
00
01
00
03
FF
00
FE
FF
FF
FD
00
00
FF
00
FC
FD
FC
FC
00
FF
01
02
03
00
02
FF
FF
00
FF
02
02
00
00
FE
FD
FF
FE
00
00
FF
FF
FF
FE
FF
02
02
02
FF
02
00
03
05
05
02
05
04
04
FF
00
FF
00
FC
FF
FE
FD
01
FF
FE
FF
00
03
01
04
01
01
00
02
03
02
06
07
0A
05
03
02
FF
FD
FE
FE
FC
FF
FE
FD
00
FF
FE
01
00
00
FF
FF
00
FF
FF
FD
FD
FC
FF
00
01
02
FD
F8
FB
FF
FE
FD
00
FE
FF
FF
FF
FE
00
01
FD
FC
FA
FA
FC
FB
FD
FA
FC
FC
FD
FC
FB
FB
FB
FC
FB
FF
FE
01
FD
00
01
FE
FF
FF
00
FE
00
FD
FD
FC
FC
FB
FA
FE
FC
FC
FB
FB
FB
FB
FF
FF
FE
00
FE
FE
01
FE
FD
FF
00
00
00
FF
FF
FD
FD
FF
FD
FF
FF
FD
00
FE
02
FE
FD
01
FD
FE
00
FF
FF
FF
FD
FD
00
01
03
02
FF
FE
FD
FE
F4
F1
F6
FD
FE
EF
E9
F3
03
ED
02
FB
02
00
03
FF
00
00
00
02
01
02
07
07
F9
FA
F5
FA
F3
F8
EB
F3
FD
F1
E6
F3
F1
EA
F1
F2
F9
05
F9
FC
01
FF
00
02
FD
03
07
06
F5
F4
F8
F1
FF
F8
FB
EE
01
FB
F8
F9
FB
00
F7
F9
F2
F9
F6
F3
FE
02
03
FF
FF
02
00
FA
EF
FC
F8
F2
F9
FB
FA
FB
FD
04
FD
FB
FE
0F
FF
FA
F5
FA
F5
F2
F8
00
03
01
FF
01
FE
F4
F4
04
02
F7
F6
F8
00
FD
F8
FC
00
F5
03
09
F7
00
03
FA
F5
E9
F4
00
03
03
FD
01
02
F3
F6
07
06
F7
F7
FA
00
FA
F8
F4
F4
FB
FF
F9
01
FF
10
01
F3
F2
F4
02
00
01
FF
01
FF
F0
F3
03
08
FB
F9
00
01
F7
EB
F4
F4
09
F5
F0
07
09
15
F8
F3
F4
F7
FE
02
00
FF
01
0A
F1
F3
03
06
FE
FD
05
F9
F7
EE
F7
09
FF
F6
F3
01
0D
1E
03
FD
03
03
FE
02
FF
02
03
11
F8
F5
07
07
FF
F9
FD
FA
E6
EE
F5
0A
F6
F9
F8
F7
13
19
08
09
18
05
04
FE
01
00
07
13
FD
F5
03
06
04
F5
F3
F6
F1
F3
F5
01
F6
02
05
F7
0E
18
11
10
29
0F
06
FF
FF
01
02
0D
FD
F5
02
03
FE
F2
F9
FC
FD
F9
EC
ED
08
0A
0E
09
09
12
10
17
29
12
04
FD
FF
01
02
06
01
FC
FF
0A
F7
F9
FC
FF
07
05
F1
07
06
09
11
11
08
0A
11
0F
1E
16
00
FE
FF
01
01
01
FE
02
05
10
07
FF
FD
00
0F
0F
0A
0E
E9
FD
14
13
02
0A
10
0C
1E
15
FF
FF
00
03
03
F9
01
09
10
07
0E
0B
01
08
13
0A
12
FE
E0
F4
11
0D
04
12
09
14
1A
11
F7
FF
00
01
FF
F3
FD
0D
0B
00
11
0A
0A
04
0D
0B
02
F0
EF
FE
06
04
03
19
03
0E
0C
0C
FE
04
05
01
02
FD
03
09
0A
02
07
06
08
0B
0A
0C
FC
F9
FB
00
02
FF
11
15
FC
12
06
07
FD
08
0B
01
02
03
08
08
03
04
02
FF
05
14
0B
0C
03
0B
FE
FB
02
04
13
09
00
16
F5
00
FE
0A
0C
FD
00
FF
04
07
FE
FF
FE
F9
09
18
0F
05
09
04
FB
00
09
07
F6
03
08
06
F4
EF
F9
04
06
02
04
FF
0B
08
00
00
FA
F7
00
14
1B
07
F8
00
00
06
05
F7
E3
FF
09
F2
F2
ED
F9
03
00
FD
01
FF
06
05
FD
F7
FC
F6
F8
0C
16
09
E1
E6
F8
03
F5
EC
E0
EB
F1
E4
EC
F1
FC
03
01
FE
F9
FC
04
FA
FC
FD
FF
F9
F6
FF
11
FD
DD
BF
DB
D9
D8
D3
DD
D9
E4
E2
E8
F4
03
07
01
01
00
F8
FE
F4
FA
07
04
FB
F3
F9
FB
F6
E6
BB
BA
C7
D0
D0
D3
D7
E6
E2
EC
F3
FF
FF
00
01
02
FF
F4
F3
F4
03
F6
F3
F4
F0
E8
EB
E3
C2
BD
CA
DB
D1
D5
DE
E7
E5
EF
F8
00
00
02
01
FF
FF
FC
FC
FA
F2
EC
E4
E0
D1
DA
DD
DA
C6
C7
D6
E5
D5
E0
EB
EB
F1
F5
02
02
01
FF
FE
FF
00
02
02
F3
EC
ED
EA
E3
D9
DB
D3
D1
D4
E0
ED
EE
EB
F3
F2
F0
FA
FE
FF
02
FF
03
FD
00
01
05
02
F4
F2
EF
F0
EB
ED
F1
E7
E8
ED
ED
F4
F2
FD
F7
F6
F6
FC
03
03
01
01
02
00
01
FE
E8
DC
C8
C4
CA
C8
D7
DE
CC
D6
E5
DD
D4
DF
CE
DE
EC
E6
E6
EA
FE
FE
FF
00
02
00
02
00
FF
FE
01
01
FD
FE
00
FD
00
02
FD
FE
FD
01
01
01
FD
00
FE
FD
01
01
FF
00
01
01
FE
02
02
00
02
FD
00
FD
FA
FA
FC
FB
FD
F7
F6
FB
FE
FB
FA
FD
FC
FD
FE
FF
01
01
FF
01
FD
02
00
02
FC
FA
FA
F9
F7
F5
F7
F7
F8
F6
F6
F7
F5
F6
F3
F8
F7
FB
FC
FF
00
00
02
FF
01
03
FF
FF
F6
F5
F2
F5
F9
F6
F7
F8
FE
FE
FB
F6
FA
F9
F7
F6
F7
F5
F3
F8
FC
FF
03
00
02
00
00
F4
F8
F5
F6
FA
FB
FC
FC
FD
02
01
FF
FC
00
FF
FD
FC
FD
FD
F5
F2
F7
FB
00
03
FA
02
FB
F9
F9
FA
F8
F6
FB
FE
FE
FF
01
05
00
FF
00
01
FD
FB
FE
01
FB
F4
ED
F6
00
00
F9
FF
F9
FA
FD
FE
FC
FC
FD
00
FF
03
04
01
00
01
01
03
01
FF
00
04
04
F9
EA
EB
FA
01
F8
01
FC
F7
FC
FA
FC
FB
01
00
02
01
02
00
02
04
04
04
06
01
01
03
05
04
F9
F5
F9
01
F8
02
FC
F7
FC
FD
FC
FF
01
02
00
02
01
06
07
05
08
05
08
07
03
04
04
03
F7
EF
F8
00
FE
03
FF
FA
FA
FE
FE
FF
FF
FF
01
FF
04
07
05
03
03
06
08
07
05
03
05
04
FA
EF
F4
FC
00
03
00
FA
FD
02
01
01
00
01
03
02
01
04
FF
03
02
07
07
08
05
05
05
07
00
F4
F5
FF
FC
05
FC
FB
FE
04
05
01
FF
03
05
00
FF
FA
F8
FA
FF
01
07
06
05
05
05
09
05
F4
F4
01
FC
02
00
FF
05
05
06
03
05
06
04
FF
FC
F4
F2
F4
FA
00
04
07
07
05
06
0B
08
F9
F3
00
FB
FF
02
04
07
08
05
04
08
08
05
FD
F8
F4
F3
F4
F8
FC
03
02
02
06
09
0D
0C
00
F8
FD
FE
FE
FE
06
07
0B
07
0A
08
07
03
FF
F6
F5
F1
F1
F4
FA
04
02
06
06
0B
0F
0F
03
FD
FE
FF
FC
FE
08
08
08
08
0A
0A
08
FF
F9
F6
F3
F0
F3
F7
FD
01
06
03
06
0A
0D
0F
03
FE
FF
F9
F9
01
07
08
07
06
09
0B
07
FC
F9
F5
F1
F4
F5
F9
FE
02
02
03
05
08
0C
09
02
FF
FF
F8
FC
00
07
05
09
05
0A
07
06
FE
F9
F6
F4
F5
F6
FB
FF
02
00
02
04
06
08
06
02
F9
02
FB
F9
FF
03
03
08
04
04
05
07
01
FD
F8
F6
F8
FB
FF
FE
FF
00
03
04
07
02
03
FE
FE
FF
FB
F9
FC
01
02
04
06
03
06
04
04
FE
FD
FC
FB
FC
FF
FF
FF
00
02
05
00
FE
00
FE
FF
02
F8
F9
FB
02
05
02
03
01
02
04
02
03
FB
F9
FB
FB
FB
FD
FC
FE
FC
FE
FC
FA
F8
03
FF
01
F8
F7
FC
FF
04
01
01
01
02
01
01
00
00
FF
FB
FB
FC
F8
F9
FB
FC
FA
FD
F4
F4
00
03
00
FA
FC
F5
F8
FE
04
07
05
04
04
02
03
04
00
FE
FF
FD
FE
FA
F7
F9
F9
F9
F5
F5
F9
01
02
FF
FF
F4
F8
FB
00
04
02
03
06
05
02
02
01
FF
00
02
FF
FA
F7
F5
F9
F5
F6
F5
FB
00
01
FC
02
FA
FB
FA
F7
F9
FB
FC
FD
FF
00
02
02
00
FE
F9
F7
F3
F4
F0
F1
F5
FA
FC
FB
FF
02
FF
00
FF
FC
F4
EF
F1
F0
F1
F1
F2
F5
F3
F4
F4
F2
F2
F0
EE
F1
ED
F0
F8
FE
FC
01
FF
FF
FF
03
FF
01
FC
F6
F0
EE
EF
ED
EF
EC
F1
F1
F1
F1
ED
EE
F0
F1
F2
F6
FC
FD
FF
00
03
02
FE
FF
FA
F9
F6
F4
EB
E9
E9
EE
EF
F0
EA
ED
EA
ED
EF
EE
EC
F2
ED
ED
F1
EE
F3
02
01
FF
FD
FE
FE
FF
FF
00
FF
FD
FF
FF
FD
FE
FF
02
00
01
00
FE
FF
00
00
FF
FE
01
FF
FF
01
FF
FF
FD
FE
01
FD
FF
FF
FF
02
FE
FF
00
00
00
01
00
FE
02
04
00
02
01
00
FE
01
01
FD
00
FD
FF
FF
FD
FF
FE
02
00
02
01
01
FE
01
FE
02
00
03
01
FF
01
00
00
02
00
FF
FE
FD
01
FE
FD
FE
FF
00
00
FF
00
02
FF
FF
01
02
FE
FA
FD
FE
FD
03
03
01
01
01
FE
FF
01
00
FE
00
01
00
FF
FF
00
01
FF
00
01
02
04
00
FA
FD
FE
01
02
05
07
03
04
00
FD
01
FF
03
01
FE
01
00
FF
FF
00
03
02
03
00
01
05
04
02
01
00
FC
FF
03
02
00
05
04
FE
01
01
FE
01
00
FE
00
02
FD
01
FF
02
02
FF
06
06
05
04
00
F7
F5
F8
F9
FD
FF
06
04
FF
00
FF
FF
00
00
FE
01
01
02
FE
01
00
00
07
05
06
06
01
F9
F6
F0
F2
F3
F9
FF
04
01
FF
02
FF
FE
00
01
FD
FE
00
FF
FF
01
00
01
FF
03
04
FD
FD
F5
F7
F5
F3
F3
F3
F8
FE
FF
00
FD
02
01
00
FE
01
FF
01
02
FE
FF
FF
05
00
FD
FC
FC
FA
01
02
FC
F7
F5
F4
FA
FD
FE
FA
00
00
02
00
FE
FD
FD
02
00
FF
01
FF
FD
FD
FA
F4
FB
05
06
08
09
06
FA
FB
FB
FF
FA
FA
FD
FD
FF
01
FF
FD
FD
FF
FF
01
FE
FF
FB
F8
F5
F6
00
06
09
11
12
10
07
01
FF
FC
F8
F9
FB
FC
00
01
00
00
00
FE
FE
FC
FD
FE
F6
F6
F4
FA
01
07
07
12
12
0F
10
0B
F9
F8
F8
F9
F8
00
FF
00
00
01
FF
FE
FD
FE
FF
01
F8
FB
F8
00
05
08
12
16
14
0F
0E
06
FB
F7
F9
F9
F8
FF
00
00
FF
FD
FF
03
FE
00
FC
FE
F8
F8
F8
00
08
0C
11
15
11
10
07
FE
FA
FB
F9
FA
FD
FC
FE
FF
01
FE
FE
FF
FE
FE
FC
FA
FF
FB
FD
00
07
0B
15
16
0E
0F
05
FC
FB
FB
FB
FB
FD
FD
FD
00
FD
FF
02
FF
FF
FE
FC
FE
FE
FB
00
07
0B
10
12
0F
0D
07
FB
F7
FF
F9
FB
FF
FD
FE
01
01
FF
FF
03
01
FF
FD
FD
00
FD
FC
FD
00
05
08
08
09
07
FF
F6
F7
FF
FD
FD
FE
FF
FE
FE
FD
00
FD
02
01
FE
00
01
01
FC
FB
FA
FC
00
05
09
05
01
FA
F5
00
00
FE
02
01
00
FD
FD
01
FD
FF
01
01
FF
FE
03
FE
FB
F9
F9
FC
05
0A
07
01
F8
F8
FC
03
02
01
00
02
00
FD
FE
FE
01
00
01
01
FF
03
01
FF
FC
F4
F6
F6
FF
FD
FE
FA
F5
FD
00
03
05
03
00
00
FE
FC
FF
01
01
01
02
FD
01
01
01
00
02
F9
F4
F8
F8
F7
FC
FA
04
04
04
02
01
01
03
02
02
FE
01
FE
01
FE
FE
02
02
FE
FE
01
05
FF
F6
F5
F6
FC
01
07
08
07
05
04
03
00
01
01
01
02
FF
FF
FF
01
00
00
03
02
00
03
06
00
00
FC
FF
00
07
05
02
03
05
04
02
03
04
00
00
01
FE
FF
FF
00
FF
FF
00
00
01
FD
FD
FE
FE
FF
FC
FE
FE
03
02
03
00
FF
01
00
03
01
FE
01
01
FD
01
FF
FE
02
01
01
FE
03
00
FE
FF
FF
FE
FF
03
02
FF
01
FE
01
00
02
FE
FE
FE
FF
FE
FF
01
00
FF
00
FF
FF
FF
FF
FF
00
01
02
01
01
01
FE
01
FF
FF
00
00
00
01
00
FD
00
FF
FF
04
05
04
05
04
05
07
06
05
06
06
06
09
08
0A
07
08
07
08
0A
05
06
08
05
08
06
05
01
FE
02
FE
FE
00
01
01
FE
01
00
FF
00
01
02
FE
00
02
FF
FE
01
00
00
FE
FF
FE
00
FF
01
02
00
00
01
02
FE
FE
01
00
00
FE
FE
FF
FC
FD
FB
FA
FD
FB
FD
FC
FC
FE
FE
01
FE
01
FF
FF
01
FF
FE
00
FE
FD
FD
FB
FC
FA
F4
F6
F7
F7
F7
F3
F4
F6
F7
F6
F6
F8
FE
FE
02
00
01
01
FF
00
00
FD
FE
FA
F7
FA
FA
F8
F7
F8
FC
FC
FC
FA
F7
F3
F8
F7
FA
F6
FD
FB
FB
FF
02
02
FF
FE
00
FC
F7
F9
FB
FC
FB
FE
FB
FC
01
FD
FC
FC
FC
FC
FB
FB
FD
FC
FE
F7
F9
FE
00
01
FE
FF
01
F8
F7
FA
FB
F8
FF
FD
00
01
02
03
01
00
FB
FD
FA
FB
FA
00
FB
FA
F7
FB
FF
02
01
00
FF
F7
FD
01
FD
FE
FE
01
FF
02
01
03
01
01
FD
FD
FB
FB
FE
03
02
FF
F7
F9
FC
03
01
FD
FF
F8
00
FB
FB
FE
00
03
01
04
00
02
03
00
03
02
00
FD
01
01
03
FE
FC
FB
FD
02
01
FF
FD
FC
FE
FE
FB
FD
02
00
00
FF
00
04
05
06
07
FF
02
FE
01
01
01
FD
FC
FC
FE
02
FF
02
FE
F9
FD
FF
FE
FF
03
00
02
00
06
04
03
04
03
00
03
01
03
04
03
04
00
FC
FD
01
FE
00
FE
F9
FD
03
00
03
00
03
00
03
04
01
FE
FF
FF
00
03
03
05
03
08
05
FE
FD
FF
01
FE
FF
FC
F9
00
06
00
03
01
04
04
04
FB
FA
F6
F9
FB
FE
03
07
06
04
08
07
01
FB
FF
03
00
FE
FA
FF
04
05
07
04
05
08
07
00
FE
F6
F6
F9
FA
FB
FF
04
03
06
0C
08
05
FF
FC
02
FF
FC
00
04
09
07
0A
08
0C
0A
08
02
F9
F3
F5
F6
FA
FB
FF
00
05
07
0E
09
08
03
FE
00
01
FB
00
06
0A
0D
0F
0B
0E
0E
03
FF
FA
F5
F1
F4
FA
FD
FF
03
08
0A
0D
0B
0F
02
FC
03
FF
FE
00
04
07
0B
0B
10
0D
0C
04
FE
F2
ED
F1
F6
FB
02
01
03
03
06
09
0D
0A
FC
FE
FF
FE
FC
FF
05
09
0B
0B
0E
0F
09
02
FD
F2
F4
F5
FA
00
06
02
06
04
08
08
0B
02
FC
FE
01
FF
FA
FB
04
09
0A
0B
0D
0A
07
05
FC
F3
F5
FC
00
02
00
00
FF
02
04
07
0B
02
01
00
00
FE
F8
FC
07
03
09
06
0B
07
09
00
FD
F9
F9
FD
01
FF
FF
FE
02
05
01
09
06
05
FE
FE
00
00
FA
01
07
03
07
07
09
05
07
02
FF
FE
FD
FB
FB
FF
FE
FF
00
00
04
06
01
FE
FF
FF
02
FE
FD
FD
01
06
05
02
05
06
03
03
00
FF
FE
FC
FF
FC
FA
FB
00
FE
FF
FC
00
F8
FE
02
03
02
FD
FF
04
06
05
05
08
08
04
02
00
FB
FD
FE
FE
FE
FC
FE
FB
FE
FE
FF
F7
F9
FE
01
01
01
FC
FA
FF
00
04
04
03
05
04
FF
00
00
FF
FE
FF
FC
FF
FE
F7
F6
F9
F9
F9
FB
02
01
00
02
FF
FD
FD
00
00
FE
FC
F9
FA
FA
F7
FA
F8
F8
F8
FA
F8
F6
F0
EC
F8
F6
F9
FD
FF
00
02
00
FD
FD
FF
FD
F8
F3
EF
F0
EF
EE
ED
EB
ED
ED
EC
EA
EE
EC
EE
F7
FA
FF
FD
FF
FF
01
00
FF
FE
01
FE
FE
F9
FA
F6
F5
F4
EF
EE
EF
EE
F1
EE
F1
F1
F5
F8
FC
FE
FF
FE
FE
01
01
FF
01
01
00
FF
00
FE
FE
FF
FB
FA
FC
FB
FE
FB
F9
F9
FC
FD
FD
FF
FB
FE
FF
01
FF
01
00
FE
FE
02
FF
FA
FA
F4
F6
F4
F6
F5
F7
F4
F5
F6
F3
F6
F4
F8
F3
FB
EC
EB
F6
00
02
FE
FF
FE
00
FE
01
FE
FE
FD
00
00
FD
FD
FC
FD
FF
FB
FB
FC
FF
FC
FE
FD
FD
FE
FD
FD
00
FF
FE
00
01
01
FF
FE
F9
F6
EE
EA
EA
EF
F2
F6
F4
F4
F1
F3
F4
F3
ED
F1
F2
F4
F7
FC
FB
01
00
FE
01
FF
FC
F8
EE
F2
EF
F1
F5
F6
FA
F5
F4
F1
F4
F2
F8
F5
F3
F4
F7
F6
F2
F4
F5
FB
02
FD
02
FE
F6
EE
EC
EF
F0
F5
F7
F9
F8
FC
FD
FD
FD
FE
FD
FC
FA
FA
F9
F5
F4
EC
EC
F3
F7
FE
00
FA
ED
EF
F1
F6
F8
FB
FB
FC
FC
FC
01
02
FF
FF
FF
FD
FB
FD
FC
FC
FA
F3
EA
EA
F1
FF
FD
F4
F0
F7
F8
FA
F9
FB
FC
FE
FF
00
05
02
FF
FF
FE
00
FD
FC
FE
00
01
FB
F4
EF
E6
00
FF
F6
FA
F7
FB
FC
FE
FD
FF
00
03
01
04
02
02
03
FE
00
02
02
FF
01
02
FD
F9
F0
EA
FD
FF
F7
F7
F5
F8
FC
FD
FD
FF
01
02
03
02
05
07
04
07
05
04
04
02
FF
04
05
02
F7
E1
FF
FE
FD
FD
FA
FB
F9
02
FF
FF
01
02
01
03
07
09
0B
08
06
05
04
FF
01
FF
03
FF
F3
EA
FF
FD
FF
00
FF
FC
FF
01
00
02
01
FF
04
02
00
02
01
00
03
03
02
01
02
03
04
FF
F5
EF
FE
01
FD
FF
FE
01
01
00
00
FF
00
02
02
FD
F9
F7
F7
F8
FE
00
00
04
02
06
07
01
F8
F3
00
FE
FC
FE
00
FF
03
03
04
00
03
01
FE
F6
F0
EE
F1
F5
FA
F9
03
06
03
06
0B
07
FE
F9
00
01
01
FD
04
07
03
08
08
05
06
00
FA
F3
EF
ED
EE
F2
F9
FC
01
01
05
08
0A
0B
06
F1
FE
FF
01
03
06
05
06
0B
0A
0A
06
FC
F6
F0
EB
EB
EC
EF
F6
FD
FF
03
08
0B
0B
0C
0A
EC
FD
FA
FF
06
06
07
09
0A
0C
0A
05
FA
F3
EB
E9
EB
EE
F5
F9
FD
FE
06
06
08
0B
12
08
E2
FF
FA
00
04
08
06
08
08
0A
09
00
F7
ED
E8
E8
F0
F2
F5
FD
FF
02
04
04
09
0A
0F
04
DB
FC
F9
01
08
06
05
05
05
06
05
01
F4
EF
ED
EF
F6
F8
FE
02
FC
01
03
02
06
08
07
FA
EC
00
F5
00
03
05
07
05
05
06
05
02
FC
F7
F3
F8
FA
FE
02
FF
FE
FC
00
04
05
05
06
FD
EB
01
F6
01
00
FF
00
FF
04
04
05
01
00
FE
FB
FD
00
FF
FF
FD
FA
FC
FE
01
03
01
00
F9
E5
FF
F5
FD
01
FF
FD
FD
01
FF
02
03
01
FF
00
FF
FF
FE
FD
FB
FA
FD
FB
FD
FD
FA
F8
F7
EC
FE
F6
FF
01
FB
FD
FE
00
FF
05
06
03
03
03
02
02
02
00
FB
FD
F9
FA
FC
F9
F6
F3
F3
00
FF
F6
F7
F8
F8
FC
FC
02
01
03
04
04
01
04
02
04
FF
FF
FB
F9
F9
F9
FB
F8
F7
F5
F7
FD
00
FA
F8
F7
F8
FB
FB
01
01
04
07
07
03
04
05
05
FF
01
FF
FB
F5
F2
F7
F6
F8
F6
FA
FC
FD
FD
F7
F8
F4
F3
F6
F8
FB
FB
FD
02
01
04
04
01
01
FF
F7
F2
EF
F0
EF
ED
EF
F3
FB
01
FD
FF
FB
FD
F9
F6
F0
ED
EF
EE
F1
F0
F1
F8
FA
F9
F4
F0
EC
EF
EE
EF
F3
F1
F7
FE
01
00
00
FD
FC
FE
F6
F3
F0
F0
EE
F0
EF
F0
F2
F3
EE
F1
ED
F0
ED
F0
F0
F4
F0
F6
FA
FF
FE
02
01
FF
FD
FF
FB
FB
F6
F5
F6
F6
FC
FA
FC
FA
F6
F9
F4
F8
F4
FA
F6
FA
F4
F8
FB
00
00
01
01
FF
FE
FC
FD
FA
F9
FB
FB
FA
FD
F8
F8
F8
F8
F7
FA
F8
F7
F9
F2
FC
F5
F4
F7
FF
02
00
FE
01
00
FF
FF
00
FF
FC
FF
01
FE
FE
FF
FD
FD
FF
FE
00
FF
FF
FE
00
FE
FF
FF
FE
01
FC
00
00
01
00
02
00
FE
FE
FE
FE
00
FF
FF
FD
01
02
FE
FF
02
01
FE
FF
02
FF
03
01
FF
FE
FF
FF
01
01
FD
01
FC
FC
FB
F8
F8
F7
F8
F7
F5
F8
FB
F8
F8
FD
FE
FD
FE
01
FF
FF
00
FE
FF
01
01
01
00
F9
F9
F8
F9
FB
FA
00
01
FA
F8
FC
F8
F8
F9
F8
F7
F9
F9
FC
00
01
FF
FE
00
02
FF
FC
FC
FC
F7
F9
FF
00
FF
FE
FF
FD
FD
FD
00
00
FF
00
02
FE
FA
FE
FA
FD
00
FF
00
02
00
FA
FD
FD
F8
FD
FE
FE
FE
FE
02
02
01
00
04
01
FB
FD
00
FE
F7
F6
F8
FB
FB
FF
00
FE
FC
FE
02
01
FA
FE
FE
01
FE
FE
03
02
01
FD
00
FE
FB
F8
FF
FC
F7
FA
FF
FA
FC
FF
01
FF
FD
FC
FD
FC
FB
FF
01
FF
02
00
05
04
00
05
04
05
02
00
01
02
FA
F8
FD
04
04
01
00
00
FB
FA
FF
FF
FD
FF
02
FF
FF
02
03
05
06
09
0A
09
04
00
FD
FB
F9
F1
EB
F9
FF
FD
FE
03
FC
FA
FE
FE
FF
FF
01
00
FF
FF
02
02
05
07
03
08
02
FF
FB
FC
FA
F5
EB
FD
FD
FF
01
04
FE
FE
FE
03
00
00
03
FF
FF
04
02
01
FE
05
07
08
04
03
FD
00
01
00
F4
FC
FC
FD
00
02
FD
FC
FF
04
03
FF
FF
01
FD
FF
FB
F8
F6
FA
FA
00
01
FF
01
05
03
FF
F6
FC
FF
FD
FF
FF
FE
FE
03
02
03
01
00
04
01
FF
F4
F3
F3
F5
FC
01
04
03
00
05
03
02
F5
FE
FB
FE
FE
03
02
02
06
08
03
06
07
07
03
FB
EF
EC
ED
F2
F7
FD
FE
03
04
06
07
05
FA
FB
FD
01
FE
FE
03
03
05
07
04
08
06
07
FF
F7
EE
EE
EF
F1
F9
01
00
FF
05
08
0B
0A
FD
05
05
FF
00
FE
02
06
06
06
06
07
07
00
FC
F5
EB
EA
EB
F0
FC
04
FF
01
02
06
09
07
FA
01
02
FF
01
FD
01
09
06
07
08
07
03
FF
FD
F3
EB
EB
F1
F7
FE
03
03
01
00
09
0B
FF
F2
F9
FA
FF
FF
FF
01
07
04
07
07
07
04
FC
FB
F1
EE
F3
F7
FA
FF
00
02
01
02
06
08
FF
F6
02
00
FE
FD
FB
02
05
03
05
03
04
04
00
F7
F6
F3
F5
FB
01
01
02
01
02
05
04
04
FD
F7
01
02
01
00
FE
00
03
04
03
02
04
06
FF
FD
F9
F7
FA
FE
03
02
FF
02
00
03
03
02
FB
F9
FF
00
00
FE
FB
FD
04
02
01
02
02
01
03
01
FD
FB
FC
FD
FE
FE
FB
FC
FE
02
00
FC
F9
F8
02
01
FD
00
FA
FF
02
02
03
01
02
00
01
01
FE
FC
FF
03
00
FF
FD
FA
FC
00
03
FF
FC
01
05
FF
FD
00
FE
FA
01
FF
02
03
05
03
05
05
02
01
04
05
03
04
FF
FF
00
04
00
FB
FB
02
01
01
00
00
FD
F8
FC
FE
05
00
05
07
03
01
02
03
01
05
04
04
FE
FA
FC
FE
FE
F5
F9
FE
FF
FF
FD
FD
00
FF
FE
FE
03
02
01
FD
FC
00
00
FB
FF
FD
FD
FD
F4
F2
EF
F7
FB
FD
FD
00
02
02
00
00
01
01
FC
F7
F9
FB
F8
FB
FB
FE
FB
FF
FA
F3
EF
F0
F2
F4
F5
FA
FD
FD
01
FF
FF
00
FF
00
02
01
FE
FE
F9
FA
F6
FA
F7
FC
FB
FF
FE
FB
F8
F6
F8
FA
FB
FB
00
FE
FF
FF
FF
01
FF
02
FF
FB
F8
F1
EE
EB
EE
EC
EF
F0
F1
EC
F0
EF
F1
EB
F0
F5
F0
F6
EF
F7
FE
F4
FE
02
FF
FF
FF
FE
FC
FE
FC
FF
FF
FC
00
FF
FF
FF
FB
FE
FD
FE
FE
FE
FE
FE
FE
FE
FC
FC
FE
FD
FC
FC
FF
FE
FE
FF
FF
00
FD
FC
FC
FE
FE
FB
FB
FB
FD
F9
F8
FC
FD
FD
FC
FF
FF
FE
FE
01
FD
FF
FD
00
00
FF
00
FE
FE
00
F8
FD
FC
F6
F9
FB
02
FC
FB
FA
F8
FD
FC
FD
FC
01
FD
FF
FD
FC
FE
00
FC
FD
FF
F9
FB
FE
F7
FA
F6
FA
FC
FB
FF
FD
00
F7
F1
FA
FB
F8
F7
01
FF
FB
FF
FE
00
FD
FD
00
FD
F6
00
FB
F8
FC
F7
FA
F8
F8
03
FF
FD
EA
EA
FC
F8
F1
F9
07
02
F9
FD
FD
FF
FD
FE
FF
FB
F7
FB
FB
F8
F7
F5
FF
F3
F7
05
F8
F5
E3
E6
FA
F3
E9
FF
08
FD
F8
FC
FF
FD
FB
FB
01
FB
F8
F7
FD
F8
F6
F4
FA
F0
F9
FC
F0
E9
EB
EE
F7
EE
ED
00
06
FE
FB
FE
00
FD
FC
FB
03
FB
F4
FE
FE
FA
F1
FA
00
F8
FE
F8
EC
DB
F1
FA
FD
F1
F6
03
08
02
00
FF
FF
FD
FC
FE
03
FB
F6
01
FD
FE
F3
02
0E
05
FA
F1
EC
E7
FB
04
FD
FA
01
01
07
08
02
FE
FD
FE
FC
FC
04
FD
FC
FD
FE
F9
F9
0F
17
02
FF
FA
F8
F5
03
03
08
08
09
FC
08
0A
01
FB
FF
00
F9
FD
01
00
FC
FC
03
FC
05
19
15
FE
06
10
07
00
14
0A
0A
0B
0B
FB
0D
0A
05
FA
00
FF
FB
FC
03
04
FF
00
0A
02
12
0C
11
05
17
1A
0E
16
0E
0E
0E
10
0E
02
0B
0C
06
F9
FD
FF
FD
FD
04
FF
03
05
0C
0A
1C
07
11
0F
14
10
1A
1B
09
16
0D
10
0F
08
08
0A
06
FB
FD
FE
FB
FD
09
FE
09
07
0E
0E
18
0F
1F
1C
1F
1C
23
16
12
15
0D
0C
09
07
05
06
09
FB
FC
FC
FC
04
08
01
08
05
0D
13
13
16
2A
26
24
1E
1D
0F
0D
10
0A
0C
07
04
04
06
0A
FB
FF
FC
00
03
04
05
04
09
12
11
1B
16
1C
28
2A
1E
13
05
15
10
02
0F
03
04
FD
07
0D
FC
FD
FC
03
08
02
02
04
0C
12
14
1B
13
1F
2D
1F
17
05
07
1F
08
03
09
01
00
FB
0B
08
FE
FD
FE
01
0A
03
03
05
0A
0F
17
18
14
24
22
17
0B
0A
03
13
05
05
FF
05
00
FD
07
04
FD
FF
FC
FF
05
04
01
05
0C
0F
1A
1B
1C
1E
16
11
04
01
FB
0C
05
FC
F7
FF
FC
03
07
03
FE
FB
FE
04
08
FD
00
09
0C
0C
17
17
1C
1C
14
0A
FD
FF
F4
04
00
F3
FC
FB
00
FF
02
FE
FE
FF
FC
04
04
FC
06
0C
0B
0B
14
0F
10
0B
02
F5
ED
EA
EF
FD
F4
F7
FD
F6
FA
FA
FB
FB
FF
FC
F9
04
04
FF
05
07
06
07
0F
00
EC
E5
E4
E2
D8
D5
EC
F0
ED
F7
F6
EF
F7
FC
FE
FA
FF
F9
FC
00
FF
00
07
06
07
03
05
E7
D4
C4
D3
D2
C8
D0
EB
E4
EE
FA
F3
EC
F4
FA
F9
FB
FC
FD
FB
FF
FD
05
03
00
04
07
00
E9
E7
CF
DD
D7
C9
DA
E5
E4
FF
FB
EF
EF
F8
FB
FB
FC
FD
FF
FD
FD
02
05
FE
FD
FF
FB
F3
EF
F5
DB
DC
D3
D4
DA
EB
E8
00
F9
F5
F3
FA
FE
FC
FD
FF
FF
FE
FD
00
01
01
FA
FF
FE
F2
F3
F0
EA
E8
E5
E0
E9
EB
F0
FD
FD
F7
F9
FE
00
FE
FC
FE
FC
FF
FC
FE
FC
00
FE
FB
FB
FB
FF
FA
F9
F5
F3
F7
F7
FB
F7
FF
00
FD
FC
FF
00
FF
FE
FF
00
FF
00
FD
FB
FF
FC
01
FD
00
FE
FF
02
00
FE
FF
02
FE
00
FD
00
00
FD
FE
00
FF
FC
FF
FE
01
01
02
FF
01
01
FF
01
FF
00
00
FE
FE
00
FE
FC
FF
FF
FF
FF
FE
00
01
FE
00
00
01
FF
02
01
03
00
FF
01
00
00
05
03
05
FF
01
0A
0B
05
03
04
00
FF
03
FF
01
FF
01
00
01
01
01
02
00
00
02
00
00
00
02
02
03
05
FC
FF
07
07
07
07
04
01
01
00
FF
03
FF
01
02
00
01
03
03
FE
FE
03
F6
F8
FB
07
06
00
FA
F8
FF
F7
FC
FD
FF
01
FE
02
00
03
FF
00
FE
FF
FF
02
02
FE
F8
F4
F5
F1
F7
FA
02
00
05
00
02
00
FC
03
FE
FB
FC
FF
02
00
00
00
02
02
00
FC
FC
00
F0
E6
F0
F2
E8
EA
F1
FB
FF
FD
01
04
05
FC
FE
FE
EE
F4
F8
FD
02
00
02
FE
FF
FD
FF
03
F6
EF
EF
F2
E9
E6
EC
F0
F5
F8
FE
06
09
FE
01
00
01
F8
F3
F7
FF
FE
F4
FD
FE
FB
FE
06
FD
F7
F6
F9
EE
EC
EC
F7
FF
06
05
0E
12
07
02
03
0B
FF
01
FB
FA
FB
F3
FE
01
F7
F3
FF
FE
F7
FC
F8
F5
F2
F6
02
09
07
04
05
11
12
10
0C
0F
0C
05
02
03
03
E7
FF
02
FC
F9
FF
FA
F7
F9
F9
F6
F9
FC
03
07
FD
FE
04
09
16
0F
04
07
0B
00
F9
F8
FA
F5
02
07
04
04
05
FC
F9
F2
F4
F4
F6
FB
FB
05
01
06
06
09
0B
0E
05
00
FC
FF
F3
F8
FC
F9
FF
07
00
F7
03
00
F4
F2
F4
F1
F3
FD
FD
02
06
0D
0E
09
06
05
06
03
01
FC
FD
FC
FA
F8
FD
06
02
F5
FA
F9
EC
ED
F1
F0
F3
F5
F7
F7
FF
0B
0C
00
01
02
FF
04
04
00
FD
F6
FE
FA
00
05
08
FE
FC
F9
EA
E8
E8
EF
F5
F8
F6
F1
EF
F7
FF
00
FB
FE
00
0B
04
03
FB
FE
FD
FC
FE
03
03
03
00
FF
F2
EA
E9
F4
FE
FD
FA
EB
DE
DF
F3
FC
FE
FF
FE
01
07
05
05
FF
FD
F8
FD
FE
FF
03
01
03
FD
F8
F1
F6
FC
FE
ED
E6
E5
E4
EA
F7
FC
FD
F6
FE
08
08
06
FF
03
F3
FD
FD
FD
04
00
01
FE
05
00
FA
F1
F3
E9
E9
E7
E7
EC
F4
F6
FB
FC
FB
04
0B
08
06
01
F4
01
FE
03
02
05
00
00
08
0D
04
F4
E7
E6
E6
E7
EC
ED
F5
F6
FD
01
FF
FF
07
03
06
02
F8
FF
FE
FC
FF
03
02
00
02
0D
0E
05
F5
EC
F0
F4
F0
F5
F8
F5
FD
01
00
F9
FD
F8
FC
F8
EF
01
00
FE
FE
01
04
FE
FC
08
0F
0F
07
F8
FB
FE
03
00
FE
FC
FD
01
FD
F8
FA
FF
FE
FA
F6
00
FE
FC
00
04
02
02
FC
02
0B
0D
06
FE
F5
FA
FE
FA
F8
F7
FB
FE
F8
F5
FD
FC
FD
01
F3
FB
FB
FE
01
05
01
01
00
FC
04
09
06
02
FA
F6
F1
F0
F0
F0
F0
F8
FA
F3
F7
FC
05
00
FF
00
FA
F4
FA
03
06
03
01
02
02
05
08
0A
00
F9
F4
F4
F3
ED
F1
F6
FA
F4
F1
FE
04
02
FF
00
FB
F8
F3
F9
01
04
07
04
06
04
05
02
05
03
01
02
FE
F5
F8
FD
06
FB
F5
FC
04
03
02
FF
FF
00
F9
F4
FA
FF
03
04
05
07
06
09
0A
0A
08
0A
08
FF
FF
01
02
FF
FC
FB
F9
00
00
FD
03
02
FE
F6
F2
F6
F9
F7
FD
FC
FE
01
04
05
09
03
04
02
F9
F0
F1
FA
F8
F9
FD
02
01
00
01
02
01
00
F4
F0
EE
EE
EC
E7
E9
EC
ED
EE
EF
F1
EE
EF
E8
EC
F6
FB
FD
01
FF
00
FF
EC
FE
FA
F9
EC
DB
DB
D4
D5
D2
D9
DA
DB
D7
D9
DC
DA
E0
DF
DF
EA
ED
F0
F4
F5
F7
FC
FF
02
01
FD
02
FD
FF
01
02
01
00
FF
02
01
00
FF
02
01
02
03
00
01
02
02
FF
00
FF
FF
05
02
FF
FF
FD
00
FF
FE
FF
00
00
FE
02
FE
FE
FE
FF
FF
03
02
03
01
02
02
00
FF
FF
00
00
02
FE
FE
FF
FF
01
01
FF
00
FF
00
01
FF
02
01
01
03
03
01
00
FE
00
FF
00
01
01
00
00
01
FF
00
FE
FE
00
01
00
02
03
FD
03
00
FB
F6
FD
FC
FD
03
01
01
02
01
FE
02
00
FE
02
02
FD
01
01
02
02
02
01
00
02
04
00
FC
FB
FC
00
01
03
06
01
05
04
00
FD
02
01
00
01
02
FF
01
FF
00
01
02
02
02
02
00
FF
FF
00
F9
F9
FF
FD
F6
F7
FF
FE
FF
FF
FF
FD
00
FE
01
01
02
FF
02
02
00
02
00
04
07
03
05
FF
F3
F6
F1
E8
E1
ED
F8
FA
FA
FF
FF
00
00
00
02
01
00
FF
FE
02
02
01
06
03
FD
00
01
F3
F4
EF
E4
D7
DD
E7
F0
F0
F8
FC
FF
FF
02
03
00
FF
FE
FF
00
00
00
02
FF
01
FE
FE
FD
FB
F6
EB
DE
DD
DE
E9
EA
ED
F9
FC
FA
FF
03
02
01
01
FF
01
00
FF
00
01
FF
FD
FB
02
02
00
FB
F9
F1
ED
E4
E8
EF
F2
F8
FA
FC
00
02
FF
02
FF
00
FE
00
01
02
00
FD
F9
FB
0A
01
01
03
01
FF
F6
EF
F0
F5
F5
FA
F7
FA
FE
02
02
01
FD
00
02
01
FC
00
F8
F7
F4
FD
02
FF
FE
05
08
0B
04
F8
F3
F3
F3
F7
F4
FA
FD
02
FD
01
02
FF
00
FC
FE
FD
F6
F9
FB
FF
00
05
05
0A
0F
0C
0F
FE
F2
F4
F5
F7
F7
FA
FD
FD
FE
02
FE
FF
FE
FE
FD
FD
FB
FE
FC
02
07
08
10
13
11
0C
0A
FD
F7
FE
F6
F9
F8
FD
FA
FE
00
03
00
FE
FD
FE
FB
FD
FA
F8
01
00
05
11
14
0F
0F
0B
05
F7
FA
FD
FA
FA
FD
FE
FB
02
01
02
FF
00
FC
FA
F9
F7
FD
F8
00
01
0A
0A
09
14
11
0D
00
F6
FF
FA
00
FD
FF
F9
FD
00
FD
01
FF
FD
FA
FB
F9
FB
00
FD
FB
04
09
07
12
0E
0D
07
F2
FA
03
FB
01
04
FE
FC
01
02
01
02
01
FE
FC
FD
F9
FC
F9
F7
FB
FD
01
08
06
04
06
F7
F1
FD
04
06
04
04
00
FF
00
01
02
FF
00
FE
FE
FC
01
FB
F5
F3
F5
F7
FE
05
00
FC
FA
F6
FE
0D
09
06
03
07
01
03
02
02
FF
00
00
FF
FF
FD
02
FE
F7
F0
EC
F3
02
07
01
FC
FB
07
10
0D
0B
00
05
02
01
02
01
00
02
02
FE
01
FE
FF
03
FD
F9
EF
ED
F3
FB
F5
FA
02
0E
14
10
09
06
02
04
01
04
00
02
01
FE
02
FF
FD
FE
FE
01
00
04
FA
F3
F5
F7
FD
01
0D
0D
06
0B
09
FE
08
05
04
02
FF
FE
FF
02
00
00
FF
FF
01
00
02
07
FF
F5
F7
FA
00
07
06
04
05
06
01
00
04
03
02
00
00
00
FE
FE
03
01
02
FF
00
00
03
01
FD
FB
F5
F8
FA
FF
00
FC
FD
00
FD
04
05
01
01
FE
00
00
00
02
01
FF
FF
FE
01
FF
02
FF
01
01
FE
00
FD
01
FE
FA
FF
FE
FF
06
03
01
00
02
01
FD
FD
FF
01
FF
00
01
FF
00
00
02
01
01
03
01
02
FF
FF
FE
FF
01
03
04
01
00
FF
FF
01
FE
00
00
00
01
FF
FE
02
00
01
03
00
04
02
00
01
01
FE
FF
FE
03
03
02
FD
FE
01
01
02
01
FD
FE
07
FF
FF
02
03
01
FF
FF
02
FF
00
02
01
00
01
FE
01
01
00
FF
02
02
00
01
03
01
02
00
FF
FE
00
FE
FF
FF
FD
FC
F9
F2
F9
EF
EA
F2
EF
EC
E6
F1
FC
F2
F9
F8
F9
FE
FD
FF
00
01
FE
01
01
00
FD
FD
FC
F9
F7
F9
FC
F8
F9
F9
FC
F8
F2
F0
F4
F6
F7
F8
F9
FB
FC
FD
FD
FC
FF
FD
FF
FF
FE
FC
FD
FC
FB
FD
00
01
01
00
01
04
FA
FA
FB
F7
F3
F6
FB
FD
FA
F9
FF
EB
FD
01
FF
FC
FA
FC
FC
FF
FF
FC
FD
05
02
FC
01
00
FF
F7
FF
09
00
FE
FF
02
FB
F4
F9
E9
FD
FD
FB
00
FF
FB
FD
FE
01
FA
FD
06
05
FC
00
05
02
F8
FA
04
03
FC
06
0C
FE
EF
F4
E1
00
FC
FD
FE
FB
FC
F6
FC
FF
FC
FE
08
05
FC
00
04
05
00
FF
06
04
FE
04
13
0D
FD
F7
CD
00
00
F9
FC
FF
F9
F6
FF
03
01
FE
01
02
FD
06
08
0C
08
06
08
0A
03
04
0D
0D
0B
00
DD
00
FD
FB
FE
01
FF
FF
00
04
FE
00
FF
F9
F9
04
0D
12
14
13
0C
0E
0A
03
00
0A
04
F9
DA
FD
FD
FE
04
02
FF
FE
03
05
01
01
03
F8
FA
FE
04
0D
12
12
0C
0F
0E
08
02
09
02
FA
DE
FF
FD
FA
01
03
01
01
00
FF
FA
FA
FD
F2
F1
ED
F4
FA
07
11
0B
09
0E
0D
05
0A
04
F8
F3
FD
FE
FB
FF
03
02
FD
FC
FB
F4
F9
F9
EF
E3
E3
E7
F3
FD
06
06
0B
10
0E
07
0A
09
F3
F7
FC
FC
FD
FE
07
03
01
FD
FE
FD
FC
F2
EB
E1
E8
F2
EC
FA
FC
02
02
09
09
06
0C
0C
F9
F0
FE
FF
FE
06
09
06
00
00
04
03
FC
F1
EF
E5
E9
F9
F8
F1
F8
FC
FB
00
06
09
0C
0D
04
EE
FE
FB
02
08
07
04
FD
00
01
F9
F5
EF
E7
E9
ED
F7
FD
F3
F1
F9
FF
FD
02
09
0B
13
0B
E6
00
FC
04
08
05
02
FD
03
FD
F4
F3
EB
DF
E6
EC
FA
FC
F7
F6
F5
FA
FA
FD
05
07
12
07
D3
FE
FA
04
06
01
07
02
03
FF
F7
F8
EF
E8
F4
FA
03
FE
F6
F5
EE
F7
F8
FA
FE
04
10
00
D4
FD
FA
00
06
02
04
FD
02
05
FD
F9
FB
FD
FD
04
04
FB
F5
F5
ED
F4
F3
F9
02
05
0D
02
E9
00
F8
04
04
04
01
FE
02
0B
03
FE
F8
02
08
0B
03
F8
FC
FE
F5
F8
FB
F2
FA
FF
0C
05
F0
FD
FA
04
02
00
02
04
FE
08
09
09
03
08
0C
0D
04
FA
FD
FB
F9
FB
F8
EF
F4
F9
06
FD
E5
FC
FC
05
02
FF
01
05
FD
01
04
09
05
08
05
09
05
F7
FA
F8
F3
F7
F2
EA
F0
F1
F8
F7
F4
00
FD
00
04
00
00
02
06
05
05
08
09
05
04
02
FE
F9
FC
F9
EE
F0
F2
E5
EE
FF
F6
F8
01
FE
F9
00
02
FC
F9
FD
07
09
01
09
0F
0A
04
01
F9
F9
FB
F7
F6
E8
ED
EE
F2
02
F9
FB
EF
FE
FB
FE
FF
FB
F7
F7
FB
04
03
09
13
0E
0F
01
F6
F2
F7
F2
FB
E9
E9
F1
F3
FA
F7
FD
F7
FD
FD
FE
FC
FB
F8
F7
F3
F6
F6
FC
FD
F5
FA
F3
E9
E9
EE
EE
F5
EE
EF
F7
FA
FF
FF
00
FE
00
00
FE
FF
FC
F8
FA
F6
F4
F7
F3
F3
F4
F2
F5
F6
F5
F5
F8
F7
F9
FB
FC
FA
FB
FD
FD
FE
00
FF
FE
FF
FC
FD
FA
F8
F9
F5
F3
F4
F2
F7
F6
F5
F7
F6
FC
FB
FD
FD
FE
FD
FB
FD
00
01
FF
00
01
01
FE
FC
FD
FC
FC
FE
FB
FC
FD
FC
FA
FC
FE
FD
FD
FD
FE
00
FF
00
FE
01
FD
00
FD
01
FE
FF
FF
FE
FD
FD
FC
FC
FC
FB
FE
FC
FC
FB
FC
FD
FB
FC
FC
FC
00
FF
FE
FF
FF
FF
01
FF
FF
FF
FF
01
00
00
FE
00
FB
00
00
FD
FD
FF
FB
FD
FD
FD
FE
FF
FF
FE
FE
00
01
FD
FF
00
FD
00
FE
FD
FC
FC
FE
FA
F8
FC
FA
FA
F9
F7
F9
F9
FA
FC
FE
00
FD
FD
01
FF
00
FF
00
FE
FE
00
FB
F7
F9
F8
F7
F9
F9
F9
F5
F3
F6
F9
FC
F9
F7
F7
F6
FB
FC
FE
FF
FE
FF
02
01
FE
00
FD
F4
EE
EE
F1
F2
FE
F0
FA
FB
FA
F5
F4
F4
F4
F4
F7
F9
FD
F8
FA
00
01
00
00
00
FD
FD
F5
EC
ED
F5
F5
00
FA
F4
00
01
F8
FB
F1
F2
FA
F7
F9
FC
F5
F3
F9
FC
FE
FD
FF
00
FE
FC
EE
E2
FA
F5
FA
FF
FD
01
02
04
02
F4
F6
FE
FB
F4
F9
FE
FD
F6
F3
F5
FD
FE
01
FF
FC
FC
E7
E8
FB
FD
FD
05
07
02
FF
FE
F7
F6
F4
FD
06
0A
04
07
08
02
FD
F8
F9
FD
02
FE
FC
FC
EB
EE
00
03
FF
07
0A
04
FE
00
FC
01
FD
FC
FE
06
0B
14
0E
0B
00
FA
F8
FE
03
FF
FE
FE
EE
F8
02
01
FC
06
00
FA
FE
FF
02
06
08
FE
03
03
0D
0C
0A
12
0E
02
FE
FD
FF
FD
FC
FE
F0
F8
FE
00
00
02
FF
F8
02
00
0A
11
12
0B
07
10
13
0F
0A
11
12
06
F9
FC
FD
FF
FA
FC
F1
FA
02
FF
FF
FD
FB
FD
01
07
0F
19
1D
1D
1B
16
16
10
0B
07
06
09
03
FD
00
FE
FC
FF
F4
F8
05
01
FC
F6
00
08
05
05
07
0E
1B
23
1C
14
13
0E
0D
08
04
0E
03
FC
00
FE
FA
FE
FD
FD
06
05
FD
FA
04
09
0F
07
06
09
10
18
1B
0F
0A
0B
09
0E
0A
10
03
00
FE
FF
FA
FA
01
02
08
04
FF
02
03
0C
0D
08
01
FF
05
11
13
0D
05
08
09
0F
15
0D
03
01
01
FB
FE
F9
02
09
0A
08
04
05
07
08
0A
04
FD
FE
FB
07
08
06
00
01
05
0F
0F
0F
00
00
00
FB
FD
F9
01
08
06
0D
0D
0B
08
06
04
00
F8
FD
FB
F8
FD
FE
02
06
06
0E
11
09
04
FF
01
FD
FD
F6
FE
08
08
08
0D
12
0B
04
00
FE
F4
FB
FB
F5
F6
F7
02
05
05
0D
0D
0B
05
FD
01
FD
FB
F2
FF
06
09
07
0B
11
0D
09
FC
F4
F9
F9
F4
EB
EE
F6
01
01
05
08
01
08
FD
FC
FE
FE
F7
F0
02
04
07
0B
0A
0D
0D
07
FE
F7
F2
F5
EE
ED
F3
F5
F9
F9
01
FB
FF
FD
FE
FD
00
FC
FA
F1
03
06
06
09
09
03
06
05
01
F4
E8
E6
EB
E9
F1
EE
EF
F4
F6
F7
F5
F3
FF
FD
FF
FC
F5
F4
04
06
05
06
0C
08
05
02
FF
F4
EB
EB
EA
ED
F2
E9
E6
ED
F4
F2
EE
F4
FE
01
FF
FB
F8
EE
03
03
09
09
0A
07
04
02
FF
FD
F6
F2
ED
F0
F1
E4
E4
ED
F8
EC
E7
EF
FC
FD
FE
FB
FC
F1
F7
05
08
08
0E
07
01
FD
01
00
FC
F7
F3
F0
EA
E3
E7
ED
EE
EC
EF
ED
FF
FD
00
FF
FE
F8
FB
FD
04
06
08
05
03
FD
FF
FF
03
FE
F7
EF
EA
E4
E8
EA
F3
F0
EA
F7
FE
00
FF
FF
FE
FA
FD
F8
F6
03
04
00
FD
01
03
01
07
05
F9
F1
ED
E3
EF
EB
F2
F3
F9
FE
FD
00
FE
00
FD
FC
F8
FA
F2
F6
FF
FB
FA
FD
FD
00
FB
F9
F8
F0
EC
EF
F0
EE
F1
FD
FB
FE
FD
FF
02
00
FD
00
FD
FE
F8
F5
F7
F6
F8
F6
FC
F8
F5
F7
F6
F0
F0
F5
F2
F1
F4
FB
FB
FC
00
FE
00
FE
02
01
FE
F7
F2
EC
E7
F2
F2
F3
F5
F5
F4
F1
F0
F4
F3
FA
FB
F7
F7
F2
FE
FF
01
02
FF
00
02
02
01
FD
01
00
FF
FD
FC
FE
00
FF
FA
FE
FF
FD
FF
00
FE
02
00
FF
00
01
FE
01
FF
FF
FF
FF
01
00
FC
FA
FA
F5
ED
F9
EE
EB
E8
E5
E8
F2
F6
F3
F5
FA
FE
01
01
01
02
00
FF
FF
FF
FE
FE
F7
F2
F1
F2
EC
FB
F3
F8
FE
EF
EE
F1
EE
E6
E7
EC
F0
F8
F8
FC
00
FE
FF
01
01
00
01
FA
EF
EC
F6
EF
FD
FC
F6
F8
00
F6
F7
F8
F5
F4
EE
F0
F9
F5
F0
F0
01
01
FE
00
FE
00
FC
F2
EA
FD
F8
FD
FE
00
F3
FB
FD
01
FD
F4
FE
FB
F5
F5
FF
F7
EE
EA
FD
01
02
01
FF
FF
FA
E8
F6
FB
FA
FA
00
FC
F9
00
06
FF
F0
F2
FB
F6
ED
F4
03
FB
F0
EC
F9
03
FF
02
FC
FE
F4
EB
F8
00
FA
FA
FD
01
FD
FE
FA
F4
F3
F5
00
F8
EE
FF
FE
F8
E8
F3
FB
FE
02
02
F7
FD
F5
E9
F9
FF
FC
00
04
00
F6
F9
FA
F9
FC
FF
F5
F9
F1
F8
F6
F6
F4
F6
FA
00
FE
01
F9
FE
F8
F3
FD
03
FF
00
FD
FA
F7
FC
FC
06
09
F3
ED
F0
F1
FC
FC
02
05
00
FE
00
FE
FE
FE
FD
F5
EE
FE
00
01
02
FF
FC
01
FD
00
02
FE
F6
F2
ED
F8
FF
04
0A
14
1E
03
01
00
01
FD
FA
FD
F5
00
02
02
FD
FC
02
06
05
02
FC
F9
F9
FF
F7
FF
04
05
08
14
1C
06
00
FF
FF
F7
03
FD
FB
02
02
05
FB
04
09
0D
09
F5
EE
F6
02
06
04
03
05
08
06
15
1D
05
01
01
00
F5
01
02
FC
09
0A
08
02
0D
11
0F
0B
EE
EE
F7
FE
09
0D
06
05
09
10
17
1D
08
00
FF
02
F9
01
FF
FF
09
11
11
08
17
0F
0F
0A
F5
F5
EA
F9
0E
0B
07
04
0B
14
17
24
00
01
01
00
F5
01
FC
03
0D
0E
0F
10
12
11
0C
0A
EF
EE
E7
FF
0D
0B
09
06
0D
13
1A
13
00
00
FF
02
FC
FE
FA
02
08
0D
11
12
10
0F
06
FB
F0
F8
F6
05
0D
06
04
08
0C
0F
1A
0C
01
00
FE
01
FA
FC
F9
05
08
09
0B
0C
0E
0D
03
FC
FD
00
01
02
01
00
07
12
09
0E
13
03
04
FF
02
FE
FA
F8
F5
03
05
04
09
0A
0D
0A
FF
02
06
FF
FE
FE
FB
02
0A
0A
07
0C
09
FF
FE
FF
01
FF
FB
FA
F2
FF
01
02
03
03
0A
06
03
03
FD
FD
F9
F7
FC
01
03
01
08
0C
FF
FC
FA
02
FD
00
F5
F9
F6
07
00
FF
FE
01
FE
05
08
05
F3
EF
F7
F6
F9
F9
F4
F6
0A
00
F7
F4
FA
FF
00
FD
F5
F7
FB
04
FD
FF
01
00
FA
01
04
FC
F0
EE
F1
F1
F0
EF
E6
F5
FB
F8
F0
F1
01
FF
00
01
EE
F6
FD
02
FA
00
03
03
FE
FF
03
FC
F3
E9
EC
EB
EA
E2
E3
E8
F3
ED
EC
F0
FE
00
FD
00
FA
FA
FB
F8
00
08
04
FE
F8
F2
F2
F3
EA
E0
DC
D7
DD
DD
DC
DE
E7
ED
F0
F6
01
00
FF
FE
FF
FE
FB
F3
FE
05
FC
F4
F7
F4
E7
EC
E4
D9
CC
CA
D8
DA
D9
E6
ED
F5
F0
F9
FE
00
FF
03
FE
FE
00
F9
F5
F1
F2
F0
EC
ED
E9
EA
E5
DB
D3
D7
E2
DC
EA
EE
F5
F5
FE
00
01
FF
FD
FE
02
FF
00
FE
F5
F2
F1
ED
E6
E5
E4
EF
E7
EC
E5
EB
EB
F1
F7
F5
F4
F8
02
FE
FE
01
02
00
00
FF
FE
01
FD
FA
FC
FC
F8
F9
F8
F9
FC
F9
F7
FA
F7
FC
FA
F8
FA
FC
FD
00
01
FE
00
FF
02
FF
FE
F6
F8
E1
DB
D5
ED
E6
DE
DC
EF
E1
E8
E5
E9
F5
EB
EE
EA
F4
FF
02
00
FE
FE
00
FD
FE
FF
01
FD
00
FF
FE
FF
00
FE
00
00
FF
01
FE
00
FF
FD
FD
FF
FD
FE
FE
FD
FE
00
FF
00
FC
FE
00
01
FD
01
FE
02
01
FE
FE
FD
FF
FF
FE
02
03
FF
01
FF
FE
FE
00
FE
00
FD
FE
FF
01
FE
00
00
FE
FE
01
FD
FD
FD
01
FF
00
02
01
01
02
FF
04
00
01
FE
01
01
FF
FE
FE
FF
FE
FF
01
00
00
FF
FE
FE
00
00
FF
FE
FB
FF
FE
05
03
03
04
01
01
00
01
00
FF
FF
00
00
FE
FD
FD
FD
00
01
01
02
03
03
01
FC
FE
FF
01
07
10
0F
0B
04
00
03
00
02
01
FF
FF
00
FD
01
01
00
FD
03
00
00
02
05
04
07
06
05
05
04
08
11
0F
0A
08
05
02
FD
02
01
00
FE
FD
00
00
FF
FD
02
FF
03
01
06
07
0B
09
FE
FB
F8
FB
04
0F
0D
0A
06
01
00
FE
00
FF
00
FD
01
FF
FD
FC
02
01
02
05
04
07
09
01
F5
F0
F9
FA
FF
06
0A
08
07
03
00
FF
FE
FE
FD
FD
FC
00
00
FC
FE
02
05
FF
03
04
F7
F4
F3
F8
FB
F8
FB
F7
03
08
05
01
FF
00
FE
FF
FF
00
FF
FE
FC
FF
00
00
03
FC
FA
F1
EA
F6
01
0C
0C
07
FB
F9
FB
FF
FF
00
FC
FF
01
FF
FF
FE
FC
FF
FD
FC
FC
FD
F8
F7
EE
E9
F3
03
0A
14
18
12
07
03
FD
FB
FD
FA
FA
FB
FF
02
FD
FE
FE
01
00
FE
FA
F8
EC
EC
E7
E8
01
0E
0C
1B
1F
19
12
10
00
FB
F6
F9
F9
FB
00
01
FD
FE
FF
FF
FD
FD
F9
F7
E7
EA
E4
EF
06
0F
12
1C
1A
18
17
0C
FA
FA
F4
F6
F9
F9
FF
01
00
FC
FD
01
FE
FD
F8
F6
E8
E7
E9
F4
04
10
1B
1F
1B
19
13
08
F0
F4
F5
F2
F5
FA
FC
01
FF
FF
FD
02
FB
F9
F7
F8
F0
EA
EE
F9
07
0B
1A
20
19
17
0C
02
F0
F2
F7
F8
F6
FA
FA
00
FF
FE
FF
FF
F8
FA
FA
F8
F9
EE
F2
F9
02
12
1D
1C
16
15
04
F6
F7
F3
F5
F9
F8
F9
FA
01
00
FE
FF
FF
FD
FC
F9
F9
F7
F4
F8
FD
08
0E
17
17
10
0A
FD
ED
F7
F6
F6
FB
FA
FD
FA
FE
FD
00
02
02
FB
FD
00
00
FD
F6
FD
03
04
0C
0F
11
0D
01
F2
E9
FA
F9
FA
FC
FC
FD
FE
00
FD
00
02
01
00
FF
06
02
00
F7
F2
FA
FF
0C
0B
05
FF
F6
E8
EE
FD
00
FB
FC
FA
FC
00
FE
FC
FF
FF
02
01
FE
08
05
05
F3
F2
F6
07
0C
0C
FF
F8
EF
ED
F7
02
FF
FE
01
FC
00
00
01
00
00
00
03
02
03
04
04
06
F6
F0
F1
FC
05
01
F4
EE
F3
FD
04
02
00
FE
FE
FE
01
00
FE
FC
00
FE
02
FF
01
01
04
0B
00
F6
F2
F5
F5
F8
F4
FA
02
05
06
06
00
01
FF
01
00
01
FF
FE
FD
FF
FF
FE
FE
02
03
05
00
FA
F3
F3
F8
FB
05
06
09
09
07
03
02
04
01
FF
FD
00
FF
FF
00
00
01
FE
FF
FF
02
07
05
01
FB
FB
01
02
05
06
02
08
06
00
04
03
02
FF
FF
01
FD
00
FF
00
01
FE
00
FD
FD
FF
FC
01
FD
FE
FB
FE
02
01
01
02
FF
01
00
01
FF
01
FE
FF
00
FF
FE
FE
FE
FE
FD
FC
FF
FE
FB
FD
FB
FF
01
FF
01
00
FE
01
00
00
03
01
01
00
FF
FD
00
FF
FE
01
FF
FD
FD
01
FF
FF
01
00
00
FF
FF
01
FF
FF
02
02
00
00
01
00
FE
FD
FD
FE
FF
FC
00
00
00
FD
01
01
00
FF
03
00
04
04
02
02
01
02
01
02
FF
01
01
FF
00
FF
00
FD
FF
00
FE
00
FF
FF
FF
FF
00
00
FF
00
FE
01
FF
01
FF
01
01
FF
FE
FE
00
01
00
FE
FF
00
00
01
00
00
02
00
FF
02
02
01
00
FF
00
00
FE
00
02
01
02
FE
FE
02
FE
01
02
FF
02
00
FD
00
00
00
01
FF
FE
FF
00
00
02
00
03
00
01
01
00
01
04
02
02
02
01
03
02
FF
01
02
01
00
01
01
01
01
01
01
01
00
FF
00
FF
00
00
FF
03
02
02
02
FE
02
00
01
02
02
FE
01
01
01
FE
FF
02
01
00
00
FF
01
01
01
FE
FF
FD
01
FF
00
04
02
FD
FC
FE
02
FE
FF
FE
02
02
00
02
FE
02
00
02
01
00
FE
FD
FB
FA
FE
FD
FE
00
04
09
07
02
00
FB
FB
FF
00
00
FE
01
00
01
02
01
FE
01
FE
FA
FC
F9
F4
F0
F4
F4
F3
FA
00
06
FD
01
01
00
00
FD
FE
FD
FE
FE
01
FF
00
00
FF
02
FF
FD
FB
FB
F7
F4
F3
FB
03
02
05
06
06
FC
00
02
FD
FA
FC
FB
00
FD
01
00
02
FE
02
01
00
FE
FD
FE
FB
FC
03
0A
06
02
FF
02
06
04
01
04
07
03
FE
01
01
01
FF
00
02
00
FC
FD
FB
FE
00
00
FF
07
01
FE
F8
F5
F8
FB
04
00
FD
03
04
FE
FB
FC
00
FD
FE
00
03
01
FC
FD
FC
F9
FC
FD
FD
FF
FC
F8
FA
F9
FD
FB
FB
FE
FA
F6
F6
F8
F7
FA
FE
FE
FE
02
01
03
01
02
FE
FB
F9
FD
FA
FC
F7
F9
00
01
05
04
FC
F9
FC
F6
F3
F5
F7
FB
00
01
FF
02
01
01
00
FA
F5
F5
FA
F5
F0
EF
EF
F2
00
02
03
F7
F9
FA
FA
F6
F7
F4
F6
FC
00
00
00
01
02
FE
FA
F2
EC
E9
EB
ED
EE
EF
ED
ED
F1
F5
F6
FB
F8
FB
FC
FA
F7
F7
F8
FE
00
FF
FE
FE
01
01
FE
F4
E9
E2
E3
EA
F3
F8
F3
EE
E8
EB
F2
F7
FC
FA
F7
F6
F8
F7
FB
FD
FC
00
FF
01
01
01
01
FE
F9
EC
E2
EF
F2
F7
EE
EA
E8
ED
E9
EF
F6
F2
F0
F8
FF
FE
00
FC
FE
00
00
FF
FF
FB
F9
FC
FE
F7
EF
EF
EB
ED
EC
EC
EE
EE
EB
EC
EF
F3
F7
FA
FF
FD
01
FE
02
00
FF
02
02
00
FC
F9
F6
F8
F9
F6
E8
E1
E7
E7
E6
E8
EF
F4
F9
F9
00
02
00
FF
FD
00
01
FC
00
01
00
FE
FE
FF
F8
F4
FB
FF
FA
F3
F1
F0
F1
F6
F8
FE
FE
FB
02
03
FF
FF
FC
FC
00
01
FF
00
FE
FD
FC
FB
F9
F5
F9
03
02
02
FC
FC
FF
05
0B
07
FF
FC
01
02
FE
FF
FD
01
FE
FF
00
03
FE
FF
FE
FA
FB
FA
F9
FD
04
04
04
02
01
08
06
00
FF
FF
FE
FE
00
02
02
03
00
FF
FE
FE
02
FF
FE
FD
FA
F8
F5
F7
00
02
05
03
FE
FB
FB
F8
F9
FC
FB
FF
FF
01
02
03
01
FF
FD
02
01
FF
FE
FF
F9
FC
FA
F9
FD
FE
06
05
00
FB
FC
F9
FA
F9
FF
FF
00
FC
00
01
00
02
FE
00
00
FF
FF
00
02
00
FF
FD
FD
00
00
04
05
07
07
03
FF
FE
04
02
03
FE
FF
01
FF
FF
FD
FE
01
FE
FE
FF
01
02
06
04
05
04
03
08
08
0B
0F
0C
0A
05
04
04
02
00
FE
FF
01
FF
00
02
02
02
FF
FE
FF
FD
00
FE
03
FC
00
05
08
09
0C
0C
06
01
FE
FC
FD
00
01
FF
FE
FF
FE
00
02
00
00
FF
FD
FC
FB
FB
FA
F9
FA
FB
FC
FD
00
FC
FB
FB
FD
FE
01
01
01
FF
02
FF
01
00
00
02
01
FD
00
FF
FB
FC
FE
FA
FA
F9
FA
FD
FA
FB
FD
FA
FD
00
00
FE
01
FE
00
FF
FD
FE
FD
01
FF
00
FE
00
FE
FF
FD
00
FE
07
FD
02
09
08
FF
05
03
02
01
01
FF
FD
01
FF
FE
01
00
01
FF
FD
00
02
00
00
FE
FD
00
FF
FD
FB
FF
04
FE
00
FF
FD
FF
00
01
02
01
FC
02
FE
FE
01
FE
01
00
FE
00
FF
02
FF
FE
FB
FD
FA
FC
FC
FA
FC
01
FD
FE
00
00
00
FE
FF
FF
01
FE
00
01
01
04
05
01
00
03
01
FF
F6
FD
03
04
FC
F6
FD
FE
00
02
01
FE
00
FF
FF
03
00
FE
01
01
FE
02
06
08
03
05
05
05
FA
F7
FC
03
F6
F8
FB
FD
01
FE
00
FD
01
FD
FE
03
FE
01
FF
00
01
FF
03
09
03
07
07
06
FF
01
FC
F1
EE
F5
FA
02
01
FC
FD
FF
FC
FE
00
00
FF
02
02
01
04
02
03
04
02
01
04
06
04
01
01
F5
F3
F6
F9
FC
02
01
02
FE
FE
FE
FD
00
FF
FF
FF
01
02
03
04
07
08
02
01
FA
FF
FA
02
FC
F6
F4
FB
F7
FB
FC
FC
00
01
FE
00
00
01
FE
00
01
04
03
00
03
03
03
FE
FD
F5
F4
FD
F7
FA
F8
F5
F9
FA
FC
FF
FD
00
00
FE
02
FE
01
01
01
00
00
FF
04
01
02
FA
F3
EE
FC
FC
F9
F5
F7
FA
FE
F9
FB
00
FC
02
01
FF
FF
01
00
00
00
FF
00
FC
00
FF
FC
F1
EE
F5
FE
04
F7
F4
F6
FD
F9
FE
00
00
00
FD
00
FC
FF
01
FD
FE
FE
01
04
06
0B
0A
07
FE
F4
F7
01
02
F7
F7
F6
F7
F9
FE
01
01
01
00
01
00
FE
FE
02
FE
02
FF
02
02
08
07
02
F5
EE
F0
05
01
F5
F4
FB
FA
FE
03
02
00
03
01
01
FF
00
FE
02
01
03
02
00
00
04
04
FE
F0
F0
F4
04
FE
F8
F3
F7
FB
FF
04
FF
02
00
FF
01
FD
00
01
02
01
00
01
01
01
03
0A
04
FA
F3
FD
04
FD
F6
EE
F5
FF
04
04
02
FF
01
02
FE
00
FF
FE
01
04
01
01
03
03
09
0C
06
FA
F3
03
FF
F9
F7
EA
F4
FF
01
06
06
01
03
01
01
FD
02
00
02
00
05
05
FF
FE
08
0C
02
F8
F1
FD
F8
F3
EF
F0
FA
03
04
07
07
03
01
04
FF
FC
01
FF
00
03
03
02
FE
01
09
0B
04
FE
F4
FA
F7
FA
F8
F4
02
03
03
02
01
05
03
02
00
FE
00
FE
FE
03
03
00
FD
01
08
06
04
F9
F9
FD
FE
F6
FE
00
05
0B
07
00
03
01
02
02
FF
FF
FF
00
FE
00
FF
02
FC
03
FE
00
FF
F6
F7
FA
F6
F6
FC
FC
05
0A
0C
08
01
FD
00
01
02
FC
FF
FE
01
FE
01
FD
FE
FB
FD
FC
FC
02
FE
01
01
FD
03
FE
FF
02
04
03
FE
FF
01
00
FF
FD
02
FE
02
FF
FF
01
04
02
0A
09
0E
05
03
FF
03
06
06
01
00
FD
00
FE
FF
01
02
FE
FD
FD
FF
01
FF
FF
FD
02
03
05
0E
15
18
10
08
05
09
09
0B
08
0C
0B
0A
08
06
03
02
00
FF
FE
03
01
00
00
03
06
06
08
0B
09
00
F4
F7
F8
FF
08
08
06
08
06
04
02
FE
FF
FF
00
FE
FD
00
FE
01
00
03
09
08
03
02
FD
FA
FE
FD
04
05
04
00
03
02
03
03
02
01
00
00
00
00
FD
00
00
FE
01
01
00
FF
FE
F9
FC
FA
FB
03
05
04
02
FF
01
00
00
00
FF
FF
01
FD
FF
02
FD
03
FF
FE
01
00
FF
FD
FE
FD
FF
FE
00
03
01
FF
FB
FD
FE
FE
FF
FF
01
00
02
02
00
FE
FC
00
FE
00
01
FE
FE
00
FF
01
00
FB
00
00
03
02
FF
FE
00
01
FF
00
00
FE
02
FE
00
FE
FC
02
00
FE
FE
01
FF
00
01
01
00
02
01
00
01
FF
01
FD
FF
01
02
00
02
00
02
02
FF
FF
FE
FE
01
FE
FE
00
FE
FF
01
FF
02
02
03
00
FF
01
FF
FF
00
02
FF
FF
01
FE
00
FE
00
01
FF
02
01
01
02
FF
02
01
02
00
01
01
02
00
FF
FF
01
01
02
FF
00
01
01
00
FF
FF
01
00
FF
FE
FF
01
FE
FF
FE
02
FE
00
03
01
00
FE
FC
FB
FE
FF
00
FD
FD
FE
00
FF
01
01
00
FE
FF
02
02
00
FE
FE
01
01
00
01
FE
00
FD
FC
FB
FA
FA
FD
00
FB
FC
00
FD
FD
02
00
01
02
FF
01
FF
00
FF
FF
02
FF
FF
FE
F9
F8
F6
FA
F8
FB
FD
F9
F5
F1
F5
FC
FE
FC
FD
FC
01
00
FD
02
FF
01
01
02
02
03
00
FF
FC
FB
F6
F1
F3
F8
F8
EF
ED
EE
F8
F9
F9
F9
F8
FC
FC
00
FF
00
01
00
02
01
02
02
03
FE
00
FB
F7
F1
F3
F2
F0
F1
EF
F0
F4
F6
F7
F7
FB
FB
FC
00
FE
00
FE
00
01
FF
FF
FC
FE
FE
00
FC
FD
F8
F7
F5
F4
F3
F0
F3
F3
F4
FA
FC
F7
FA
F9
FD
FE
FF
01
01
FF
FE
FF
01
00
03
01
01
FB
FB
FC
FA
01
FF
FA
F4
F5
F5
FB
FD
01
FF
FB
00
FF
00
01
FE
00
FF
FF
03
06
08
07
07
02
FB
FD
01
06
02
00
F9
F7
FB
FB
00
04
02
FF
FF
01
01
00
02
FD
FF
FE
02
03
03
07
03
FE
F6
FB
FF
04
03
01
F8
F7
FA
00
03
00
FE
00
00
FF
01
01
FF
FE
FE
FE
00
00
03
01
01
FB
F4
F5
FE
06
05
FB
F8
FC
00
01
03
01
02
FE
01
FD
FF
FF
FE
01
03
02
01
FF
02
00
FF
F5
F5
F5
FD
08
04
FE
FA
02
04
03
02
01
01
FF
FF
01
01
FE
02
FF
03
04
05
04
05
01
FF
F8
F5
EF
FF
04
03
FD
FD
FB
FA
FE
FD
FD
00
00
01
FD
00
FE
FF
FF
01
02
04
03
03
04
FE
F8
F2
F4
FF
05
02
F5
F5
F7
FC
FD
FF
FF
02
01
01
FF
01
FE
FF
01
04
01
03
03
06
05
FE
F3
F5
FA
04
08
04
F4
F0
F2
F9
FD
00
FF
FF
FF
02
FD
FE
00
01
02
02
00
00
04
03
02
F9
F3
F3
FF
05
09
01
F0
EA
F1
FA
FE
01
FE
FF
FF
FE
FD
FF
FE
FF
03
02
01
FF
01
FD
FA
F3
F2
F2
FF
06
03
F7
EB
F0
FA
00
04
01
FE
00
FE
FE
FF
FF
01
02
01
03
FF
FE
FC
FC
FE
F8
FC
FE
01
02
01
F1
F0
F4
FC
00
00
FB
FF
FF
02
00
FE
FE
02
01
02
02
00
02
03
05
04
07
04
00
FF
F8
F8
F9
FA
03
05
07
08
08
06
05
06
04
00
01
FF
00
00
FD
FF
00
04
05
01
00
FD
FC
FC
F6
FA
04
09
0F
0D
0C
0A
09
09
0A
07
03
02
02
00
FF
03
02
03
05
07
04
00
FD
FC
FA
FC
FA
FD
06
09
0E
0D
09
05
06
04
05
05
04
FF
FE
00
FF
02
05
08
0C
06
03
00
FD
FE
01
00
01
06
05
04
04
08
06
06
01
FF
01
00
FF
01
01
FF
01
FF
03
05
05
01
FE
FC
FC
FD
FC
FF
01
01
02
00
00
02
03
06
00
FD
FC
00
02
00
01
FE
01
FE
00
FC
FE
FF
FE
FF
FE
FF
FC
01
05
00
FF
FA
FC
FE
02
02
01
00
01
02
FF
FF
FE
01
FF
FE
01
FD
FD
00
FD
FF
FE
FD
FD
00
FF
FE
FD
FC
00
00
FE
FE
01
01
01
FF
00
01
00
FE
FF
01
FD
00
FD
FF
FE
FD
FE
FA
FF
FC
FD
FF
00
FD
FB
FF
FD
01
FE
FD
00
01
FE
00
01
FF
FD
FE
FF
FD
FD
FC
00
00
00
00
01
00
00
FE
FC
FE
00
FD
FE
FE
FC
FE
FF
01
FF
FF
01
FE
FD
FE
FE
FF
FE
F8
F8
01
F6
06
04
10
04
FB
F5
08
FF
FC
FD
FF
00
FD
00
01
FF
F9
01
00
FE
FF
FF
F9
F4
F9
F7
F7
F8
08
09
01
03
F7
F4
01
F9
F6
F7
FE
FB
00
00
FE
FF
FB
FF
05
FD
0A
06
EE
F9
FE
FD
FE
03
0D
05
04
0B
FE
FF
00
04
FF
07
09
F5
FE
FE
00
FE
FB
01
0A
01
0A
05
EF
F9
FE
05
0F
0D
0E
11
0E
16
14
0F
10
0B
0C
24
19
FA
FC
01
FE
01
FD
FF
01
04
04
02
F8
F5
F8
06
0E
13
08
0C
16
12
17
1E
1A
1F
23
26
15
03
FB
FD
FE
FF
FD
FC
F6
04
03
F5
FC
F6
F5
FF
07
FF
01
0C
0D
07
08
16
1D
25
21
1E
10
02
FB
FD
00
01
FC
FA
F6
00
FF
ED
FE
FB
F0
F7
F8
F7
00
0C
08
03
12
0F
1D
1B
1F
19
10
04
01
00
FF
02
FE
F9
F6
FF
F4
F4
04
02
EF
F4
F3
F0
F3
00
FF
05
12
11
12
0C
03
12
11
FE
02
FE
FE
FF
FB
F9
F5
FE
F1
EC
04
03
F1
EE
F3
F0
EF
EE
F4
0E
04
0A
FD
F9
07
19
0B
00
00
02
FD
02
FE
FD
F8
FE
F2
E5
FF
F9
EC
E5
FB
F9
EB
EA
FB
01
06
05
F0
07
0D
15
08
05
03
08
00
FF
FB
00
00
03
F9
E5
F8
F5
E4
E9
FD
FB
EE
EB
FD
FC
09
09
0A
13
14
13
05
03
02
05
FF
01
FB
FE
03
0C
FF
F4
00
F8
F2
FB
F5
FF
FA
EB
FB
02
18
07
0D
18
13
0B
02
00
02
04
00
03
FB
00
07
0D
05
FA
02
03
04
FF
EB
04
03
F4
FB
08
16
0A
10
18
0C
FF
FF
F9
FE
01
FE
02
FC
00
09
10
01
F4
F0
08
0D
FC
F4
09
05
FD
09
17
14
FD
0E
14
04
FF
F9
FE
FD
FF
FE
00
FB
FE
06
07
F5
F0
E6
04
0A
FA
02
0C
09
08
14
19
07
F5
FF
0A
00
FC
EF
F9
0A
00
FF
01
FA
00
05
FC
F7
EE
EC
FB
02
F3
FB
07
06
0C
23
21
FD
EB
FB
01
F7
F0
EA
07
08
01
01
FE
FB
01
00
F4
EF
EC
F0
F5
F9
F4
F6
F6
02
06
29
20
F1
E2
07
F3
ED
E9
EF
02
08
01
03
01
FC
01
FD
ED
E1
EA
FA
F4
F0
EE
E8
F7
FB
01
1E
14
EA
CB
04
EC
E7
EF
FC
05
09
02
05
03
FA
01
00
F3
E7
F0
08
FF
EF
F5
E8
F6
F7
00
0A
01
E6
D2
F7
EE
E7
F8
01
0C
0B
01
01
04
FA
FD
02
08
04
FB
07
F7
F1
FA
FB
F9
F8
FB
FC
F9
EC
EE
F6
FA
F4
FD
02
09
08
03
00
01
F9
FD
01
0C
0F
0B
04
F6
F8
05
05
06
0A
05
FD
F9
FD
05
19
FE
F9
F8
03
0A
0C
04
01
FF
F9
FE
FE
0D
12
0C
FF
F5
FB
10
0D
0F
10
08
00
FD
00
18
26
0B
FC
F5
FE
03
00
05
04
FF
FA
FD
FF
FE
02
06
F5
F8
01
0A
0C
12
0F
FC
F9
F8
F6
15
27
10
FC
FD
06
FE
00
07
03
00
FB
01
00
F0
EB
F5
F1
01
FF
05
F8
FF
02
F7
ED
ED
E5
04
0E
02
00
07
03
F9
FC
00
00
01
FA
FD
01
F3
EB
EC
F2
FF
04
F0
CE
FF
09
F8
F3
ED
DC
F6
F7
FD
00
07
F9
F8
01
FF
FE
02
F9
01
FD
FD
F4
F9
FA
03
05
E9
E8
FB
F8
DC
FC
FD
F8
F5
FC
FC
FF
01
FF
FE
01
00
01
FE
FB
02
FC
E3
E6
DA
C5
EF
DC
C1
F0
E0
E5
C3
F0
C5
C9
DA
E7
D5
E7
F3
F2
00
02
FF
01
00
F9
FE
01
00
01
01
02
00
00
FF
00
FE
01
FF
03
02
00
01
01
FF
FF
FF
02
02
00
FF
01
02
FF
01
FE
00
02
00
00
FD
FD
FC
F9
F9
FC
FD
03
06
03
F8
F8
FC
FB
FA
FC
FE
FD
01
FE
00
01
02
FF
02
FF
01
FD
FD
F9
F5
F5
F5
FC
02
02
01
04
FC
F7
FA
FC
F6
F8
FB
FB
FF
FF
00
01
06
00
01
04
01
00
F7
F6
F7
F5
F7
FC
01
01
00
FF
FE
F8
FB
FE
FC
FA
FA
F6
F9
FC
FD
04
08
04
01
08
04
00
F9
F6
F7
F8
FA
00
04
05
03
04
FF
FF
00
FF
04
FF
FD
F9
F4
F5
FE
02
FD
FE
FE
06
03
FF
F9
F6
F9
FD
FD
FB
00
01
03
03
FD
00
01
FE
05
05
01
FB
F7
F1
F9
00
F1
FE
FD
02
00
FC
F8
F5
F8
F9
FC
FC
FC
00
FD
FE
FC
00
FF
00
01
00
FF
FA
F0
F5
FB
01
F2
FB
FD
FF
F8
F7
F8
F7
F7
F8
F9
FB
FE
02
01
FD
FC
FB
FB
FD
FF
FD
FC
F4
EC
ED
F9
00
F4
FA
FB
FB
F9
FC
F8
F7
F9
F6
F9
FE
FE
03
04
04
00
FE
FB
FB
FD
FB
F8
F2
ED
EA
F8
00
F7
FB
FE
FA
F7
FA
FB
FC
F7
FB
FA
FE
01
09
08
08
00
FD
F9
F9
F8
FA
F8
F7
F2
F0
F7
02
FD
FC
FF
FA
F6
F8
FA
F7
FA
F8
FC
FC
02
08
0A
06
03
FE
FD
FD
FC
F9
F8
F7
F3
F6
F9
FF
FE
FF
01
FC
F8
F6
F6
F5
F4
F8
FB
FC
06
09
0A
0A
01
FD
FE
FE
FA
F8
F9
F5
F3
F8
FB
02
FB
01
03
FE
FC
F8
FB
F8
F7
F9
F8
FB
08
08
08
08
02
FC
F9
FA
FB
FA
F8
F4
F2
F6
FE
01
FA
01
06
03
FC
FE
FA
FD
F8
F6
F7
FD
08
0B
0A
06
00
FE
FA
FA
FA
F5
F6
F6
F6
FA
FE
01
FD
03
05
01
FD
F9
FD
FC
F9
F9
F7
01
08
08
07
01
FA
F5
F4
F5
F3
F3
F7
F6
FD
FA
FD
03
00
04
04
F8
F8
F5
F9
FC
FC
F8
F9
04
0A
0A
08
FC
F9
F3
F2
F5
F3
F3
EF
F3
FA
FC
FF
04
FE
02
FC
F9
F5
F7
F4
FA
F8
F7
FA
03
09
06
02
F9
F3
F2
F3
F4
F3
F4
F5
FA
FE
FD
FE
02
FC
FE
FB
F3
F2
F0
F5
F8
FA
F8
FB
03
05
05
FF
F9
F4
F2
F6
F8
F9
F8
F8
00
03
02
FF
00
FE
FF
F7
F3
F2
F1
F6
F9
F8
F9
FB
00
01
FF
FB
FA
F7
F9
FB
FD
FE
FC
FF
03
02
05
01
04
F9
FD
F9
F1
F4
F8
FD
FA
FA
FF
FE
00
02
00
FE
FA
FE
00
00
03
02
02
05
08
0C
08
06
01
F8
FE
FF
F9
FD
FE
00
FE
FF
FF
00
FE
FD
FC
01
FE
FF
04
06
0A
08
07
07
09
0E
0D
07
02
F7
00
08
0A
06
02
03
00
03
01
FE
FC
FC
FE
FE
FF
02
06
07
07
0A
02
05
07
0A
0D
07
03
FA
01
05
0D
0E
08
01
01
01
FE
FB
F9
FC
00
FD
FD
00
01
05
07
05
03
FF
FE
03
0D
07
05
F8
FC
FC
05
07
02
03
00
00
FE
FD
FC
FC
FE
FF
01
FF
02
01
05
03
01
FB
F4
FD
07
05
02
FD
FD
F8
F6
FE
FF
FA
FA
FB
F8
F6
F8
F8
FA
FA
F9
FA
FD
03
00
FD
02
FC
F3
FA
FF
00
03
FF
00
F9
F2
F2
F5
F9
F6
F7
F0
ED
F1
F9
F6
F4
F4
F3
F1
F8
F9
FF
FA
F9
FA
FE
FD
01
02
FF
01
FD
FB
F4
F5
F4
F7
EE
ED
F1
F0
ED
F0
EF
F6
EE
F0
F7
FA
F9
FD
FF
FE
FD
FF
00
02
01
02
F6
FA
EE
F1
F1
F0
F4
F3
ED
EC
EE
E9
F2
ED
F2
EB
EE
EE
F7
F6
F9
FA
02
FF
02
01
FD
FE
FE
FD
FC
FC
FD
FF
FC
FC
FC
FF
FF
FB
FC
FA
FA
FE
FD
FB
FC
FB
FF
FD
FE
FD
FE
FD
FF
FB
FB
FB
FB
FF
FD
FF
FF
00
00
FD
FF
FE
01
FF
FF
FD
FC
FE
01
00
FE
FF
FB
FB
FC
FE
FE
FF
FB
FC
FE
FD
FE
FC
FF
00
FA
FB
FC
FE
FD
FD
FB
01
FF
FF
FF
FF
FE
FE
00
FE
00
FC
FE
FD
FE
FF
FC
FB
FD
FE
FC
FD
00
FC
00
03
03
FC
FE
FC
00
01
00
00
00
FC
FF
FC
FE
FC
FF
FD
FF
FF
FB
FF
FB
FD
FD
FD
00
FD
02
07
0C
09
0A
06
09
04
01
00
FE
00
FE
FF
FE
FE
FC
FF
FC
FD
FB
FC
FF
FC
FF
01
01
06
08
0F
0D
14
13
11
0D
07
01
01
FF
00
FC
FD
FE
FE
FC
FE
FB
FD
FB
FB
00
00
FF
03
05
0C
0D
11
18
1C
1E
19
14
0A
06
01
03
03
FF
02
01
FE
FE
FC
FE
FB
FC
FE
FE
FD
00
04
07
09
0D
11
21
1F
1D
1C
13
0A
08
01
01
00
02
FF
FE
FC
FE
FC
FB
FF
FD
FD
FC
FE
00
02
0A
0C
10
18
1B
1C
17
1A
18
09
08
02
02
FF
FF
FE
FF
FF
FC
FE
FE
FB
00
FC
FE
FE
01
03
07
09
14
1D
17
09
10
1A
12
0E
04
04
03
00
FF
FD
FE
FB
FD
FB
FE
FD
FD
FB
FE
FF
01
03
04
0F
11
1A
04
FC
0A
19
13
0B
07
02
00
FF
01
FE
FF
FE
FE
FF
FD
FE
FC
FB
FD
02
00
03
04
0F
14
10
00
FB
03
19
0F
08
03
01
FF
02
FE
FD
00
FC
FC
FB
FE
FC
FD
FD
FD
FE
FF
FF
04
0B
11
07
FC
FB
06
17
0C
07
05
00
00
FD
00
00
FF
FD
FD
FC
FB
FE
FC
FC
FF
00
FF
02
05
10
13
02
FD
FA
04
12
08
03
03
05
FE
FF
FD
00
FC
FD
FF
FF
FC
FB
FD
FC
00
FE
01
03
05
0E
13
04
FF
FC
0A
13
0A
07
03
00
FF
FE
FD
FF
FF
FB
FE
FE
FD
FB
FD
FE
FD
00
04
03
0A
0D
13
03
FD
FC
10
0D
08
06
06
04
00
00
FF
FE
FC
FD
FF
FB
FE
FB
FF
00
01
00
03
06
0A
14
14
04
FD
00
17
10
0D
07
04
FF
00
FC
FB
FF
FB
FD
FF
FC
FC
FE
01
00
02
00
04
07
10
14
11
03
FB
09
1A
13
0A
04
FF
FD
FF
FD
FB
FA
FD
FF
FF
FB
FB
FC
FF
FF
FF
01
FF
06
09
0B
06
FA
FD
14
1C
11
06
01
FE
FC
FD
FF
FB
FA
FD
FC
FB
FB
FD
FE
FE
FB
F9
FB
FE
02
06
0B
08
04
0A
1C
1A
0E
01
01
F9
FB
F9
FC
FB
FB
FD
FD
FD
FD
FE
FB
FC
FA
F9
FE
01
03
06
0A
0F
10
16
1E
16
04
FE
FC
FA
F8
F9
FA
FB
FD
FD
FF
FF
FF
FD
FC
FC
F7
FA
FB
FE
02
01
0D
12
15
18
17
0D
00
FF
FA
FD
FB
FA
FA
FC
FC
FA
FD
FB
FE
FD
FD
FC
FB
FB
FC
F6
FC
00
09
15
16
17
0D
FF
FC
FB
FA
FB
FA
F9
FC
FE
FE
FD
FE
FC
FF
FB
FD
FC
FA
FC
FC
FC
00
05
06
11
0F
06
FE
FD
F8
F9
FB
FA
FA
FD
FF
FE
FB
FD
FE
FC
FD
FE
FB
FB
F9
FB
FE
FC
03
06
07
0B
09
02
02
FD
FB
FC
FF
FE
FA
FB
FB
FC
FD
FD
FB
FE
FF
FD
FD
FC
FD
FF
FE
00
03
04
02
04
FF
FC
FB
FF
00
FC
FD
FD
FE
FB
00
FC
FB
FE
FE
FB
FF
FF
FE
FE
00
FD
FF
FD
FE
FD
00
02
01
FF
FF
FE
FF
FC
FC
FE
FC
FD
FC
00
FD
FC
FB
01
00
01
01
01
FF
FD
FD
FC
FF
03
04
04
05
04
02
00
04
03
04
04
01
00
FF
03
03
02
00
02
01
01
02
00
FE
02
02
FE
01
00
FE
00
FE
00
FF
FF
02
00
01
FE
FF
01
02
00
FF
01
FF
03
01
00
00
FF
02
03
02
FF
FD
00
00
FE
FE
02
02
01
00
FF
FE
FF
FD
FD
FF
FE
00
01
FF
00
02
01
01
00
FF
00
01
FC
FA
F7
FA
FE
FF
04
08
07
04
00
FD
FC
FC
FF
FC
FE
FE
00
02
00
01
FE
01
01
01
FF
FD
FB
FC
F9
FB
FE
02
03
07
05
FF
FF
FC
02
FC
FE
FC
FE
FE
01
01
02
00
02
FF
02
05
FE
FB
FA
FA
FB
02
03
08
0B
0B
07
05
06
04
06
06
03
03
00
F9
FE
FD
FF
FF
FF
FE
02
00
FF
FA
F9
F8
FB
FE
02
05
02
00
05
02
02
05
04
07
07
03
FF
FF
FB
00
00
01
01
00
FF
FE
FB
F8
F3
F7
FB
01
02
FE
03
02
01
03
05
04
07
04
01
FD
F7
F5
FC
FF
FE
01
FF
02
01
01
FC
F7
F5
F3
FC
FD
FE
01
05
07
06
04
06
04
04
03
04
02
FD
F5
FA
00
FF
01
02
00
03
FD
00
FC
F8
F8
FE
FC
FF
03
09
06
07
05
05
02
00
01
00
FD
F8
FB
F9
FE
00
00
00
00
03
FE
FE
FD
F8
F8
FE
FD
FA
08
0A
08
0A
04
00
FC
FF
FD
FC
FB
F6
F9
FC
00
00
FF
FF
02
01
FD
F8
F6
F5
F5
F9
F7
FD
08
09
0B
08
02
01
FF
00
FE
FC
F5
F9
FA
FF
FF
00
FE
FF
02
06
FD
FB
F9
F6
F4
F6
F8
00
08
0B
0B
04
01
FF
07
00
FC
FD
FA
FB
FC
FF
01
FF
FF
FF
05
03
03
FC
FB
F8
F5
F8
F9
00
0A
0A
0A
02
01
03
FF
FA
FB
FB
FB
FA
FB
FD
FE
FF
02
FE
05
05
FF
FC
FF
F8
F6
F5
FA
07
09
07
09
03
00
02
FA
FA
FA
F9
F8
F9
FB
FE
FF
01
02
01
03
00
FB
F9
F8
F8
F7
F9
FD
08
0B
08
09
FF
FF
F7
F2
F7
F8
F7
FA
F9
FD
00
00
00
FE
01
FE
FD
FA
F8
F8
FC
F9
F9
03
09
0C
08
05
00
FF
F6
F5
F8
F7
F4
F4
F4
FC
FE
FF
03
00
01
FE
FA
F7
F3
F6
FA
F8
FB
02
08
09
09
00
F8
F4
F1
F3
F7
F8
F6
F5
F7
FD
02
FF
FF
00
01
FE
F5
F3
F1
F7
F6
FD
FE
05
05
06
04
FE
F6
F9
F7
FC
F9
F8
F5
F5
FD
01
00
FF
00
FE
FE
FB
F2
ED
F4
F7
FC
FE
FD
02
03
03
FF
FA
F7
FB
FF
00
00
FD
FB
FE
06
06
02
01
00
01
FF
00
F2
F7
F9
FD
FE
00
FD
00
03
01
FD
F9
FC
02
04
04
02
01
05
08
0B
07
02
00
FF
00
FF
03
FD
FE
FF
FF
FF
FD
00
00
FF
FE
F8
F8
FF
03
05
03
02
00
FC
01
03
08
02
00
FF
FE
01
06
07
07
03
05
01
FF
FF
FC
FA
F7
FA
FE
01
01
02
04
00
04
FE
FB
02
03
00
00
02
01
FE
01
08
0D
07
04
02
06
02
FF
FA
FA
FF
06
05
00
04
02
03
04
F9
FC
FF
FF
02
00
00
00
02
00
01
07
04
FF
03
06
03
FE
FB
FA
FC
01
FD
FB
FF
01
08
00
FE
FE
FF
FE
02
02
FE
02
02
FF
FF
FD
FB
FA
FC
FA
F3
F1
F5
F6
F9
F6
F3
F5
FB
01
FF
FF
FE
FD
FE
01
FF
02
02
FF
01
FF
FF
FE
FB
FB
FA
F8
EF
E9
F3
F9
FB
F8
F5
FB
FC
FF
FD
01
00
01
FE
FF
FE
00
FE
03
02
00
02
FF
01
FD
01
FD
FB
FB
F7
F7
F9
FE
FD
00
01
01
FF
01
FF
00
FF
03
02
01
01
FF
FF
FF
F9
F5
F4
F9
F8
F7
F7
F2
F1
F0
FB
FD
F5
F6
F4
F3
FC
FC
00
01
00
00
FF
FF
FF
01
01
00
01
FD
FD
FF
01
FD
01
FF
00
00
01
03
00
02
01
FE
01
FF
FE
FE
FE
FF
00
01
01
05
03
03
02
00
FE
F9
EC
EB
E5
E7
ED
F4
F8
FA
FC
F9
EC
F1
F1
EB
ED
F2
F3
FF
FE
00
FE
04
06
07
05
05
FF
F4
F0
ED
EF
F6
FC
03
02
01
FF
00
FB
FA
F8
FB
F3
F6
F4
F7
F8
02
00
05
07
0E
09
05
FF
F2
F3
EF
F3
F5
F6
FD
FE
FC
FB
F7
F4
F9
FD
FD
FD
FB
F7
F2
F2
FC
FD
03
04
0A
06
00
FA
F4
F4
F7
F8
FD
FE
FD
FD
FE
FF
FA
FF
FD
01
03
01
FC
F7
F0
EA
F2
01
01
FB
04
00
FA
F4
F5
F5
F7
F9
F9
FC
F9
FB
F7
F9
F7
FD
02
02
02
02
00
FF
F2
ED
EE
01
FF
FA
FB
F9
F4
F2
F0
F4
F8
F9
F7
FA
F8
F6
F7
F8
FA
FF
FF
00
FD
FF
FA
F3
EA
E6
EF
01
FF
FD
FB
F8
FA
F3
F7
FB
F9
F9
F9
FC
FE
FC
00
FE
01
00
01
FE
FF
F9
F5
F2
EC
E5
F0
01
03
FD
F5
F8
F7
F7
FB
FB
F9
FD
FE
01
02
03
06
09
08
03
00
FE
FB
F9
F5
ED
E9
E4
F5
FF
00
01
EF
F2
F7
F7
F6
FA
FD
FD
FE
FE
03
0B
0A
09
06
FF
FB
FD
F9
F1
F3
EC
EB
EF
F7
01
00
01
EE
EF
F3
F6
F3
F7
FA
FC
FF
FF
06
0D
0D
0A
07
FC
FD
FA
F7
F1
ED
EA
EC
F2
FC
00
FE
06
F4
FA
F8
F8
F9
F7
FA
FB
FD
00
08
09
09
06
05
FC
FE
F9
F6
F2
F1
F1
EC
F0
EF
00
02
07
FE
00
FF
FA
FC
FC
FA
FC
FD
01
07
0B
07
06
01
FC
F4
F1
EE
EF
EE
EF
EE
F1
F4
FE
05
09
00
FF
F7
F8
FE
FC
FC
F8
FA
04
06
05
05
04
FE
F2
EB
E9
ED
EA
ED
EC
EF
F2
F9
00
08
05
FA
F5
F1
F9
F9
FA
FA
F8
01
02
03
05
FF
FE
F4
EA
E9
E8
EB
EE
EC
EE
F4
F9
F3
FE
03
FF
F1
E9
ED
F2
F4
F7
F7
FA
02
05
05
01
FC
FA
F0
EB
EA
ED
EC
F0
EB
F0
F4
FB
F3
01
01
FC
ED
EB
E9
EA
F0
F3
F7
FD
00
01
02
FE
FB
F3
EC
EE
F1
F6
F5
F7
F7
FA
FC
00
FE
00
02
F4
E7
E6
E5
EE
F3
F9
FE
FF
FF
FF
00
FC
F9
F9
F4
F9
FB
FE
FD
00
00
FF
02
02
00
FE
00
F1
E4
E5
E8
F2
FB
FE
00
01
01
FF
FD
FC
FA
FB
01
04
05
07
07
06
07
08
08
09
FF
00
02
F7
EC
F8
FD
FE
06
03
06
05
03
00
FC
FA
00
02
08
0A
0C
0C
0C
07
0B
08
0C
0E
F6
FE
01
03
02
08
0A
07
07
06
05
03
FE
FD
F9
FB
03
08
0C
0B
0C
0D
09
04
00
03
06
0C
F4
00
02
09
10
0F
0E
0E
07
06
04
FC
FA
F9
FB
FF
01
06
05
07
04
06
07
03
F9
F4
02
0D
04
00
01
03
0D
0E
0B
08
05
02
FC
F5
F1
F2
F7
FC
FD
04
03
03
04
01
FF
FC
F3
ED
F6
02
05
FE
00
FE
02
01
03
01
FF
FC
F7
F2
F1
F3
F7
F8
FC
FB
FD
05
FE
FA
FA
FB
F2
F5
FA
01
01
FE
FF
FA
FD
FD
FA
F6
F6
F0
F2
EE
EB
ED
F0
ED
EF
F0
F1
F6
FD
FA
F7
F9
FC
F4
FC
02
FC
02
03
FC
00
FB
F7
F5
F6
ED
EB
EB
ED
EF
EE
EE
F0
F2
F2
F2
F7
F8
F9
FE
FD
FF
FE
02
01
01
03
01
03
02
FC
FD
F7
F3
F4
F3
EF
F1
EE
EE
F4
FA
FD
F8
FB
FD
FF
03
01
01
05
01
02
08
FF
FF
FE
FB
FD
00
FC
FC
F8
FD
F6
F7
FE
FA
FC
F0
F5
F6
F9
FA
FE
00
01
FF
FE
01
00
01
FF
FE
00
00
FF
FE
00
FE
FD
01
FE
FE
00
FE
FE
00
FE
01
FE
FE
01
00
00
00
01
00
00
FF
00
FF
FF
FE
FE
FE
00
FD
FF
FC
FE
FE
04
01
01
FC
FD
00
01
FD
00
FF
02
FF
02
00
02
02
FF
01
03
FF
01
FD
FB
FC
FA
F9
02
02
02
01
FD
FE
01
01
FC
FE
FE
FF
01
FE
01
02
01
02
01
00
00
01
FE
FA
FA
F7
F7
F7
FA
00
00
00
FC
F5
F6
FC
FA
FB
FA
FA
F8
FE
00
00
00
03
00
FF
02
00
FF
FA
F8
F9
FC
FD
01
04
01
02
FE
FB
FA
FE
FD
01
02
FC
F5
F8
F8
FE
00
FF
FF
02
02
02
FD
F8
F8
FC
F8
FA
FD
FE
FE
FC
F7
F2
F4
FB
FB
FF
FC
FF
FA
00
00
FF
FF
02
FE
00
02
FF
F9
F6
F3
F8
FE
F9
FC
FE
FD
FA
F3
F5
F9
FE
01
00
FE
F9
F0
F1
FA
FB
FD
FD
00
01
FE
FB
FA
F4
F4
F7
FC
FF
FE
00
01
FE
FA
FF
01
02
03
00
01
FD
F3
F6
F9
FE
FE
FF
FD
FF
00
F9
FC
F9
F7
F8
FD
FE
FD
06
04
03
FF
01
03
00
02
FF
FA
F7
EE
F6
FB
FE
FE
FE
FD
FF
FE
F8
FA
FB
FA
FC
FE
FE
03
08
09
08
00
04
FE
00
FC
FD
FB
F3
F4
FA
FE
FF
FE
FF
01
FF
FA
F4
FC
FC
F6
F4
F9
FE
04
0C
0C
08
03
FF
FE
FD
F7
FB
F9
F5
F5
FC
FF
01
01
01
00
01
FD
F4
F9
FB
F9
F9
F9
FC
04
0A
0A
0B
03
02
FB
F7
F5
FC
F8
F7
FB
01
FE
01
FE
FF
01
02
01
F7
FD
FB
F8
F8
FC
FB
04
09
0C
0C
03
FF
F9
F1
F1
EE
F3
F6
F9
FB
FE
FF
FF
02
FF
02
02
FB
FC
FD
FC
F6
F8
FC
07
0A
0E
08
02
FC
F3
F0
EF
F1
F7
F8
FB
FE
FE
FD
FF
02
03
01
FF
FC
FC
FC
FB
FB
F8
FB
09
09
0A
05
FF
F4
EC
E8
EC
F0
F4
FA
FE
FF
03
01
02
FF
FE
FF
FB
F9
F7
FA
FB
F7
F9
FC
09
0B
0E
02
FA
F0
E7
ED
EE
F0
F1
F6
FE
FA
00
01
FE
01
02
FF
FB
F3
F6
F9
FA
F9
F6
02
07
08
0A
FB
F2
EB
EA
EF
F4
F8
FC
02
04
03
03
00
01
02
01
FE
F6
F2
F3
F6
F8
FA
FC
00
07
08
05
F8
F0
F2
F7
F8
FB
02
FD
01
03
02
02
FF
00
FE
01
FD
F5
EF
F1
F5
FC
F9
FC
01
04
04
FD
F6
F4
F6
FD
02
03
00
00
06
0A
05
05
01
05
01
00
FA
F1
F3
FA
FB
01
01
01
03
06
05
FF
FD
FD
02
07
0B
0A
0A
09
10
0F
0C
03
05
00
01
01
FF
FB
FC
01
00
01
04
07
05
05
06
04
04
07
06
0D
0D
0D
0A
06
08
09
04
04
FF
00
FE
01
02
04
04
06
06
09
07
06
01
FF
00
00
FE
00
06
08
01
04
FF
FF
05
06
01
FE
00
01
01
01
04
0D
05
05
03
05
00
FE
F9
FA
FA
FF
FD
FF
02
04
00
05
F6
F7
01
03
00
FE
FE
00
01
FD
00
08
04
FF
FF
FD
FF
FB
FA
FA
FC
01
FE
F7
FE
05
04
01
FA
F9
01
01
00
FF
00
01
02
FE
FD
FD
01
FD
FC
FA
FE
F9
F7
F7
F9
FD
F8
F8
FF
06
03
03
FF
00
01
FF
FF
02
00
FF
01
FF
FE
FC
FF
FF
00
FD
F6
F8
FB
01
FA
FC
FC
FD
FC
02
02
FD
FD
FE
FF
FE
01
02
02
02
02
01
01
FD
FB
FB
FE
FD
F7
F3
F7
F7
F4
F7
F4
F7
FB
FF
FE
FE
FE
FE
02
FF
02
01
01
01
FE
FC
F5
F3
F0
F1
EF
F3
EE
EA
EF
F2
EF
F4
F1
EC
F4
F3
F4
F8
FB
FF
FE
FF
FE
01
FE
FE
00
FE
FE
00
FF
00
FD
FF
FF
FF
01
FF
FF
FF
FE
FD
FB
FD
FF
FD
FB
FD
FE
FF
00
FE
FE
FC
FE
02
00
02
00
02
01
01
FF
FE
FF
00
FE
00
FF
04
FD
FD
FF
FE
FC
00
02
FE
00
01
01
FE
FD
00
01
00
00
FE
FF
FF
FD
FF
FE
04
01
06
02
07
FC
06
05
07
00
05
02
01
FC
01
FD
FD
FF
FE
FF
02
FE
FA
FD
FB
FD
00
FF
00
05
09
08
09
00
0F
06
0D
03
02
03
FF
FA
FE
FD
FC
01
00
00
01
00
F9
FE
FD
01
01
FE
FC
05
0F
10
0E
0F
18
16
0D
09
03
07
01
FD
FD
FD
FF
00
00
02
03
FE
F8
FC
FC
FF
03
00
FF
09
0F
09
0E
1A
25
1B
0B
09
04
06
02
01
00
F8
FE
FE
01
00
FF
FD
FC
FC
FD
02
00
FB
04
0D
0F
0D
18
22
23
13
0A
07
03
03
01
01
01
F9
FC
FD
01
FE
FD
FB
FC
FA
FE
03
FA
FA
05
0A
0A
0B
1A
1B
1E
06
01
00
FE
02
02
03
FF
F7
FB
FC
FD
01
FC
FC
FC
F9
FE
FD
F4
F4
FB
FD
01
03
0F
0E
0F
FF
FC
FA
FF
FC
03
06
FF
F7
FD
FE
FE
00
FB
FE
02
FC
FA
F6
F1
F3
F3
F0
FD
F2
03
0B
03
FC
FB
FD
01
FA
02
08
02
F9
FE
FF
FF
FF
FD
FD
FE
00
F5
F8
F5
EB
EB
F3
F6
F3
F4
09
03
00
00
01
00
F8
00
03
FE
FA
FF
FD
FD
FF
FA
FB
FD
FE
F5
FA
F5
EE
F0
F7
FF
F1
F9
15
07
06
09
08
03
FE
FE
FF
FE
FE
FD
00
FF
01
FA
FD
FE
00
FA
FB
F7
F1
F8
02
06
F8
FF
1E
0D
0D
0C
0A
00
FB
FA
FC
FC
FC
FE
FE
00
02
FD
FB
FB
FE
00
F7
F8
FD
FF
0C
04
03
0E
23
0A
16
0B
03
FA
F9
FC
FA
F9
FC
FE
FC
FE
01
FE
FC
FA
00
01
F1
F8
08
04
10
06
0C
15
1D
0F
17
04
FC
F3
FA
FC
F9
F7
FD
FC
FE
FF
FF
FD
FB
F8
01
FB
F2
02
0E
0B
14
0A
08
1C
15
14
12
FC
F6
F1
F5
F9
F5
F8
FE
FC
00
FE
00
FD
F8
F8
FF
FE
F7
00
08
0D
18
09
FE
1F
14
12
05
F4
EE
EF
F7
F9
F8
F6
00
00
00
00
FB
FB
F8
FA
02
FA
F7
FA
04
0D
11
FF
FB
1C
0E
06
FA
EB
F0
F0
F6
FA
F7
F5
00
FE
FD
FF
FF
F9
F6
FF
FC
FA
F3
FB
FE
FD
04
F9
F9
0D
01
EF
F0
E5
ED
F0
FC
FA
F6
F9
04
01
FC
FE
FD
F8
FE
02
F9
F9
F5
FB
F8
F9
01
F0
FD
FB
F5
E7
F0
E7
F3
F5
FE
FC
FA
FF
04
FF
FD
FF
FD
FA
FC
FF
F4
F7
FB
F9
FB
FE
00
F8
0A
F1
EA
EC
F6
F1
F8
F8
02
FF
FB
FC
05
02
FB
FC
FE
FE
00
FC
F7
F6
FE
F4
05
09
10
0B
0D
EC
F4
F8
FA
FA
FD
F8
0F
04
FB
FC
02
00
FC
FD
FE
FE
FF
F7
F6
FA
FE
F6
12
0E
17
13
0E
FE
00
01
FA
FE
F8
FD
0D
06
F7
FA
01
FE
FE
FD
FE
FE
00
F9
FD
02
06
02
18
16
1A
10
09
09
0C
0B
FF
03
F7
F5
06
03
FC
FB
00
FF
FF
FD
FD
FF
FA
F9
FD
FF
03
01
14
15
0E
0A
FB
06
0D
00
F8
FF
FA
F9
03
00
FD
FA
FE
FC
00
FF
FD
FC
FE
FC
00
FF
FC
FD
11
07
FB
F6
F4
FA
05
FC
F2
FD
FC
FA
FF
00
FD
FE
00
00
FE
FD
FF
00
FC
00
FE
00
FB
FF
05
02
FE
FF
FA
FF
03
00
F9
FD
FF
FD
FD
FF
01
00
01
FC
00
FF
FF
00
00
FD
02
FF
FE
FF
03
FF
FE
02
FD
02
00
FF
FE
FE
FD
FF
FE
FC
FE
FE
FF
FE
02
FF
00
00
01
FE
01
00
FF
00
00
00
FD
00
FA
FC
FC
FD
FF
FC
FE
FC
FF
FE
FD
FE
00
FF
06
00
00
01
02
04
01
01
02
03
04
00
01
04
FA
00
03
00
03
03
02
01
01
03
FF
03
03
00
03
00
01
01
02
03
01
FD
01
02
02
03
FA
F7
F3
F6
FA
01
FF
FF
03
00
FF
02
04
04
03
FE
02
00
01
01
00
03
04
FD
FD
01
FD
FA
E5
E5
E9
E4
E8
EF
FB
FA
FB
FF
00
02
04
03
01
FE
05
05
03
04
02
FF
07
0D
03
02
05
02
F9
E5
E8
E9
EA
E8
F9
FB
FE
FC
FB
FC
FF
03
02
FF
03
06
05
0B
0C
FF
01
0C
10
0B
FF
FF
F8
F3
F0
EC
EF
E8
F2
F7
F9
F8
F6
F7
FA
00
00
FE
02
02
05
08
09
03
01
04
0E
08
06
FE
F8
F0
E9
EB
E4
E0
EB
E8
F1
F7
F4
F1
F5
F8
FD
F3
03
FF
05
01
00
02
FC
FC
07
05
05
FF
FA
EF
E8
E6
E1
E0
E7
E7
EB
EC
F0
F0
F6
FB
FD
FD
04
00
05
FF
FB
FF
FC
F4
FD
00
FE
00
FB
F3
EF
EA
EA
EA
E8
E1
E6
E9
EB
ED
F0
F8
FB
F5
05
00
02
FD
FC
08
07
FB
F9
FE
F6
F6
F6
F7
F6
F4
F3
F7
EE
E6
EB
EF
EF
EE
EB
EE
FA
F9
02
FE
02
FD
F4
FC
07
06
01
FF
F9
F9
F8
FB
FC
03
FC
FB
F1
EB
EF
F6
F6
F6
F8
F6
FD
FC
02
03
03
FC
ED
F1
F5
F9
F9
FA
FB
F3
F8
FF
FD
05
FF
FD
F7
ED
EE
F5
F9
FB
FA
FC
FD
F8
03
02
07
FE
F3
F2
F2
EF
EA
F2
F1
F2
F4
FE
FD
00
FE
FE
F9
F5
F9
F8
FC
FC
FA
FC
FF
02
03
04
0A
05
FF
FB
FD
F7
EE
EE
F0
ED
F3
01
00
01
07
FE
F3
FD
00
FC
FD
F9
FD
FE
00
FA
02
03
09
0C
03
FE
04
01
FA
F0
EE
F0
F8
02
04
03
02
FE
F6
F9
F5
F4
FB
FB
FC
FB
FD
FA
05
03
03
02
FA
FA
01
03
FB
F1
F1
F4
04
03
00
FF
01
F3
EE
ED
EC
EE
FB
FE
00
FD
FF
F6
06
03
04
02
FA
F0
F1
F9
FC
F2
F6
FD
09
0E
07
FF
FD
E7
E1
E2
E6
F1
F5
FE
01
00
01
F9
03
03
FE
FF
F1
E9
EB
F4
F0
F5
F9
00
08
0E
09
01
F1
EB
E6
DF
EB
F3
FA
FC
FA
FF
01
F9
05
FF
FE
F9
F5
E2
E0
EB
F0
F2
F6
FF
FE
05
05
00
EC
EE
F0
F3
FD
03
05
07
04
03
FF
F6
02
01
FA
EF
F8
FC
EE
EC
EF
F5
F8
FA
F9
FF
01
FF
F7
F6
F8
FE
FB
FF
01
05
04
FA
01
F3
05
00
FA
EE
F2
F8
FE
FD
FE
F9
FA
FC
FC
FB
03
04
FE
00
05
0B
12
0E
07
05
08
09
08
F5
06
05
0D
0F
FD
FA
00
FF
FE
FB
F8
FC
04
0A
07
09
0E
19
15
18
19
16
17
17
10
0F
07
F5
04
04
0E
1E
14
08
01
00
00
FD
00
01
04
09
09
08
0D
15
15
16
14
0B
0C
0D
0F
0D
03
FD
06
FF
02
0F
17
15
09
07
FF
02
FF
FF
FD
01
05
02
05
0C
10
0E
0C
04
01
04
05
0A
07
00
04
01
FA
F9
07
09
08
00
FE
FC
FC
FE
FE
FE
01
05
05
09
06
06
06
06
F9
F8
FE
05
01
02
03
02
FD
EF
F2
F3
FD
FC
F9
F3
F2
FF
00
F9
F7
F2
F6
FC
FE
01
01
00
FA
FB
FA
01
02
01
04
00
FF
FD
F5
EF
F3
FA
FB
F4
ED
F1
F3
F5
F9
EF
E3
E9
F3
F9
FD
FF
FE
FE
00
03
02
01
0C
0A
03
F2
E9
E8
E6
F5
F7
E4
DE
E6
F0
F5
EF
ED
E7
DB
DC
E4
F5
FE
FD
FF
00
07
09
01
00
FB
FB
FD
FF
FE
FD
FC
FC
FC
FF
FB
FC
FB
FB
FC
FD
FB
FA
FB
FC
FC
FF
FE
FD
FD
FE
00
00
FC
FE
FB
FE
FB
FB
FE
FD
FC
FE
FF
FE
FF
FF
00
01
FC
FC
FE
FE
FF
FD
FF
FC
FE
FE
FF
FF
FD
FE
FC
FA
FC
FE
FB
FB
FE
FD
F9
FC
FC
FC
FD
FB
FD
FD
FD
FD
FD
FC
FE
FE
FD
FD
FC
FF
FB
FE
FB
FC
FA
FB
FF
00
01
FC
01
01
06
05
00
FE
FD
02
05
FE
FF
FC
FC
FC
FD
FD
FD
FF
FD
FE
FB
FE
FC
FD
FB
FB
FE
FB
01
04
0A
0A
0A
0A
11
0C
03
FE
00
FE
FE
FE
FF
FC
FF
FD
FD
FC
FA
FB
FC
00
FD
FF
FD
06
09
0D
0C
15
14
14
1A
12
08
03
02
00
FE
00
FF
FD
FD
FF
FC
FD
FA
FF
FE
FE
FD
FF
00
05
0D
0E
17
1B
17
1C
23
13
0A
07
02
01
FE
FF
FE
FE
FF
FC
FD
FC
FA
FF
00
FF
FD
01
06
05
13
15
25
1D
1A
24
21
10
0B
06
04
00
FE
01
FF
FF
FE
FF
FB
FC
FB
00
FF
01
00
00
09
0C
12
1F
23
18
0F
17
1B
0B
05
05
00
03
FF
01
FE
FE
FE
00
FB
FC
FC
FB
FF
FE
01
04
05
0A
1A
22
14
08
08
17
13
04
02
02
FE
FD
FF
FD
FE
FD
FF
FD
FD
FC
FC
FE
FF
01
04
03
08
11
1A
1A
0D
00
0E
0D
09
04
FD
FF
FF
FE
FF
01
FC
FD
FD
FF
FC
FC
FC
FF
FB
02
FF
04
07
11
1D
11
0D
03
05
0A
01
FE
FE
02
02
01
FE
FE
FC
FE
FF
FF
FE
FD
FF
FE
00
04
03
05
09
12
1B
07
0F
03
04
02
FE
FE
01
06
01
02
01
FD
FE
FB
FD
FB
FD
FE
FC
FD
FE
FF
01
03
05
0F
0C
09
06
02
03
0A
FF
02
09
06
04
FF
FF
FE
FD
FD
FB
FE
FC
FA
FD
FF
FF
00
FF
06
05
0F
13
0E
01
03
11
14
03
0F
09
04
01
FF
FD
FD
FD
FD
FE
FC
FB
FC
FC
FE
02
00
02
03
0A
17
17
11
04
04
1D
10
0C
0F
07
03
01
00
FC
FE
FB
FF
FD
FF
FA
FE
FD
02
00
02
03
06
0E
19
15
0D
02
16
1F
19
11
07
01
01
FE
FB
FE
FD
FC
FD
FB
FE
FE
FD
FE
00
02
01
00
07
14
19
10
04
09
20
23
19
05
FE
FA
FA
FD
FD
FD
FB
FA
F9
FC
FD
FB
FC
01
01
02
01
02
0D
0E
0D
05
0C
1D
20
23
12
FB
F5
F5
F8
F8
FC
FE
FC
FA
FD
FC
FB
FC
00
FE
FD
FB
FB
FF
03
06
0F
10
1D
1F
1B
16
FD
F1
F8
F6
F7
F9
F9
F8
FB
FB
FC
FF
FC
FE
FC
FE
F9
F9
FB
FD
00
05
12
1C
26
22
15
04
ED
ED
F7
F4
FB
F7
F8
FC
FD
FB
FB
FC
00
FF
FB
FB
FA
F7
FA
FB
00
07
10
18
19
14
05
ED
EA
F0
F2
F5
F8
F6
FB
FC
FD
FE
FF
FF
FD
FE
FB
FC
F9
F9
FC
FA
02
0B
12
16
11
08
F8
F0
F3
FB
F7
FC
FA
F9
FF
00
FF
FF
FF
FB
FF
FB
FA
F8
F8
F9
FB
FD
07
09
07
07
02
F6
F5
F7
F9
FD
F9
FD
F8
FC
00
FD
FD
FD
FD
FD
FC
FB
FD
FB
FD
FF
FE
FF
04
01
FE
FE
F8
FB
FF
FE
01
FF
FC
FB
FE
FC
FF
FF
FE
FB
FC
FC
FF
FD
FE
FE
FF
FE
01
FF
00
FF
FE
01
FB
FF
FF
03
01
FE
FC
FB
FC
FD
FF
FE
FE
FB
FB
FC
FF
FE
FC
FC
FC
FF
FC
FB
FC
01
FE
00
FF
FF
FF
FE
FE
FD
FB
FE
FE
FF
FD
FF
FC
FD
FB
FC
00
FD
FD
FF
FB
FD
FD
FC
FF
FE
FC
FE
FB
FC
FE
FC
00
FD
FB
FB
FE
FB
FE
FE
FE
FC
FD
FF
FD
03
02
00
03
FF
00
FF
FB
F8
F9
03
F5
02
FB
F7
08
04
F1
FE
04
03
FC
01
01
02
00
00
00
03
01
01
03
00
FD
FF
FC
F7
F2
F6
F6
FD
FD
F4
FF
05
F9
F6
FD
01
F8
FF
01
FE
02
00
00
02
00
04
02
FF
FE
FE
F9
F3
F9
FD
FB
FF
05
F2
F7
02
FC
F0
F7
FE
F5
F5
FB
FC
FE
F0
03
01
FF
04
01
FC
02
FE
F9
F8
FE
08
02
FD
FD
FC
F7
FB
FE
F6
01
06
00
FD
FD
F6
F5
ED
FF
FF
FE
FF
FC
FB
03
02
FF
FC
FE
07
FE
FA
EE
F2
F8
FC
F7
F4
F9
FE
FD
01
07
FE
F5
EA
FF
FE
00
FC
FB
F7
F3
F8
05
09
02
05
06
03
EF
F7
FB
FF
F9
FC
F7
FA
FA
F7
FB
F5
F2
E8
01
FF
00
FD
FA
FE
F7
F4
04
07
FE
07
02
02
F9
FF
02
FB
F9
FE
F7
F9
FB
FB
03
F6
F4
E4
00
01
FE
FB
FA
FE
FC
FC
06
06
04
0A
06
03
FA
02
07
F8
F6
FB
EF
EA
EF
F2
02
FD
F8
F6
FF
00
FF
FB
F8
FA
FE
F8
03
08
07
0B
0C
01
F6
FE
06
F6
F6
FB
ED
E6
E6
F4
FF
01
FA
F4
02
FF
FF
F8
FA
FB
00
F6
F7
FA
00
04
05
FB
F3
FA
05
FD
F7
F2
F3
EB
E7
F5
F9
F7
FA
F4
02
FE
01
F8
FD
FC
FF
FC
F8
F8
F4
FC
FD
F7
EF
F0
01
FF
F2
F6
F6
F6
F4
FB
FC
FB
FA
F3
01
00
03
FD
FE
FE
FC
F9
F8
F4
F8
FA
F8
ED
EF
EE
FF
FF
F3
EC
E5
F5
F9
F7
F7
FA
FA
EF
03
00
FE
FA
FB
FB
FD
F8
F7
F9
FF
00
F6
E7
EE
F3
02
FF
F3
EA
E7
F4
F6
F2
F6
FA
FD
F1
01
FF
FF
FB
F8
F8
F9
FA
F2
FD
03
FE
F5
EA
EF
F9
01
FE
ED
EB
E6
F5
F6
F6
F5
FA
FF
FA
01
FF
FD
FA
F8
F7
F9
F8
F7
00
06
FF
F5
F0
ED
F1
F8
FD
F1
F3
E8
EF
F6
F3
ED
F1
FB
EE
FE
FF
FD
F6
F3
F7
F8
F6
F9
01
04
FE
F7
F0
E6
F0
F2
F6
E9
F5
F7
FB
FF
FB
F1
F7
00
ED
00
00
FE
F3
F2
F5
F9
FA
F8
00
05
05
F6
ED
EB
F1
F8
F9
F5
FA
F8
FA
01
FE
F9
00
04
FF
01
00
FB
F3
F1
F7
FB
00
03
03
09
06
FB
EB
EF
F1
FF
09
05
07
05
06
0C
0A
03
07
0A
FE
FF
FD
F9
F3
F6
FD
FB
01
05
0B
09
09
05
F5
F2
F5
0F
21
1C
18
15
0F
12
12
12
0E
13
FC
00
01
FE
F8
04
09
06
04
04
09
05
05
02
F6
F2
FB
0E
1E
15
1B
13
10
08
03
08
0E
0C
F0
00
FF
04
03
0A
0B
0E
06
00
FD
F8
F3
EF
EB
F4
04
07
0E
05
10
10
17
12
F3
FE
09
08
FE
02
FE
FF
09
08
07
03
02
FD
ED
E3
E3
ED
F1
F9
0A
10
0C
06
00
07
0C
14
F6
EF
F7
06
07
02
01
FF
04
06
00
FF
01
F3
F0
E9
ED
F3
F7
F3
05
0D
05
0E
FB
F3
09
0A
FB
F8
FC
FD
FD
02
FE
FC
02
FE
FD
FD
02
F7
F6
F9
FE
FA
F9
F9
0B
03
EF
F5
06
FA
03
02
00
FD
FF
FF
F0
02
02
FF
02
FF
FD
FC
FB
F9
F7
F8
F9
FB
F9
FA
06
02
F8
F7
FC
FA
FD
00
FF
FD
FE
FF
FF
01
FF
FF
00
FE
FA
FB
F8
F6
F7
F8
FC
F8
FC
F7
F5
FD
00
FB
00
FD
FE
01
02
01
02
01
00
03
03
01
02
02
00
FF
FF
FD
FF
FF
02
02
01
01
01
00
FE
00
00
00
02
FE
03
00
01
02
FF
02
02
01
02
FF
FC
FE
FE
FD
FC
FB
FC
F9
F9
F8
FA
FA
F8
FD
FD
FF
FD
FE
00
01
FF
02
01
FF
00
FE
00
FD
FE
FD
FE
FF
FE
FE
FC
FF
FB
FC
FD
FE
FE
FD
FD
00
01
01
00
FE
01
FE
01
02
01
00
02
FE
FF
00
FF
FE
FE
FD
FD
00
FC
01
F7
FC
F8
FA
FF
FE
00
02
01
FE
FF
01
00
02
FF
00
00
01
00
00
FC
F8
FD
00
00
0A
0B
09
00
F2
FC
FB
FC
F8
FA
FC
FD
01
00
00
00
02
FE
01
FE
01
FD
F9
FC
F8
FC
FE
0A
15
15
0E
FE
FB
F9
FF
07
02
00
00
02
FD
FF
01
FD
01
FE
00
01
03
01
FB
FE
00
02
03
10
1B
16
0C
06
00
06
07
06
0D
0D
00
FF
FF
02
00
FD
03
02
FD
FC
03
00
F8
FC
05
0B
14
12
17
14
07
06
0E
04
FD
05
09
0E
FF
00
FA
FF
FE
FD
01
FF
01
FE
04
04
FD
FD
03
11
1B
18
1C
19
10
0B
11
07
02
04
08
08
02
FB
00
FC
FD
FE
01
01
FE
F9
FE
04
08
FC
FA
0E
1A
18
18
17
0E
0F
0E
04
FB
FE
09
0B
04
00
FC
FC
FD
01
04
01
FD
03
F9
FD
0C
00
F9
07
14
16
19
15
0C
03
0C
FD
F5
FD
01
07
06
00
FD
F7
FD
FF
01
FE
00
09
F7
F4
06
00
F3
01
09
0F
14
13
11
05
0E
04
FC
00
00
01
FC
FA
F9
FC
FD
FE
FF
00
01
07
F7
ED
FE
FB
F1
FC
05
0E
10
12
0F
0D
0C
0C
05
02
FE
F8
F6
F5
F6
FB
FE
FE
FD
FE
FE
04
F5
EC
F9
F6
EC
F4
FF
08
0A
0E
0E
12
16
15
08
05
FD
F6
F4
F4
F5
FB
FD
FF
FE
FE
FC
FE
F2
ED
F9
F4
EA
EE
FF
07
0B
0D
12
12
1A
0E
04
09
03
F6
F1
F4
FA
FC
FD
00
02
FD
FE
F9
E5
EA
F3
F1
EF
E9
F9
0A
0E
0C
09
0F
15
0B
04
06
01
F7
F1
F6
FD
FF
FF
FF
03
FF
FE
F9
E5
D8
E6
FC
F2
E7
FE
0B
0F
0D
08
08
0E
FF
F9
FD
F3
E8
F0
F3
FA
FF
FF
FF
02
01
FD
F9
F1
DD
E6
FB
F5
F4
03
09
0E
0D
06
02
03
FA
F6
FA
EE
E6
E7
F5
FB
FD
FE
00
00
01
FF
F6
EA
DD
E2
FA
FD
FF
08
0F
15
0E
07
FE
02
00
FA
F1
ED
E6
E3
FC
FF
FE
00
00
FF
FD
FE
F2
E6
E3
E4
F9
03
06
0A
11
12
0D
06
03
01
FD
F4
EF
E7
E4
EB
FE
01
FE
FF
FF
00
00
FC
F1
E3
E9
F3
F4
05
05
08
0D
0C
09
05
07
01
F7
F9
F0
EF
EC
F3
FF
05
00
00
FC
FF
00
F9
EC
DE
ED
F8
F9
04
01
06
08
05
05
06
0B
04
FE
FC
FA
F9
FB
02
07
05
01
02
FE
FE
FC
F9
F1
EF
F5
F4
F8
FE
FF
00
05
04
06
0B
0B
06
0E
09
03
00
01
00
07
04
01
02
FF
02
FA
FE
F7
FB
F9
F8
FD
FF
09
04
09
0B
11
13
10
0B
15
14
0A
FE
06
04
07
06
02
02
FD
01
FA
FD
FA
01
FD
F9
FB
00
0B
0B
0B
13
0F
0B
0E
0C
12
16
0E
FC
FE
02
01
FF
FF
FF
FE
04
FF
FF
FC
0B
07
FD
04
09
0A
0C
0F
10
0B
0C
04
02
0A
13
0C
F9
F9
FB
FC
FD
02
FF
FE
00
00
00
FC
01
FE
FD
05
04
01
F8
03
00
FE
FB
FB
FC
FD
07
FF
F9
F6
F4
FA
FC
FF
00
00
01
01
00
FD
F8
FB
FA
04
FE
F2
E7
F7
01
F7
F3
F3
F5
FC
02
FE
FB
F8
FF
00
01
FF
FF
FD
02
01
02
FC
FD
FE
FE
FB
F8
F2
F2
F4
F0
F2
F8
F3
F7
F9
FE
FC
FA
FD
FE
FD
00
01
FE
FF
02
00
02
FD
FB
F5
F5
F7
F5
F0
F5
F4
E3
E5
F8
00
F0
E8
EE
EC
F8
F7
FE
FE
00
01
01
FE
FF
01
01
FF
01
01
FF
00
FD
FF
00
FC
FF
FA
01
00
FE
FD
00
02
FF
FD
FE
01
FD
FD
00
FE
FF
02
00
FF
00
FE
FD
FA
F6
F8
F5
F6
FF
0D
17
03
01
FD
03
FA
FD
FF
01
00
FF
FF
01
FF
FF
02
02
02
02
01
F4
ED
ED
E8
EF
06
0A
09
0E
00
FA
F7
02
02
FA
FB
FA
FE
01
01
FF
FE
FE
FE
FE
02
05
F7
EA
EB
F5
FC
FA
0E
14
10
0D
04
FE
05
0E
04
01
0A
02
F1
FA
00
00
FD
FD
FE
FF
02
09
FB
ED
F5
F5
01
0A
14
15
14
13
12
0F
18
0F
0B
0F
15
0B
F3
FA
00
FE
00
FF
FF
F8
FC
FD
F8
EA
E9
ED
04
0B
0D
0E
13
12
15
17
19
1A
1A
1D
1A
06
F2
FA
00
FF
00
FC
FB
F5
FB
00
F9
F1
EB
F6
09
09
06
0F
12
0E
14
17
1E
1D
20
19
1B
03
EE
F8
FD
01
FF
F6
F9
FE
02
FB
FF
FA
F2
F5
05
07
05
0D
0F
10
18
18
15
13
0F
15
08
02
F1
FA
FD
00
01
F1
FA
04
FF
F1
FD
FD
F7
F4
FC
FD
08
0B
07
10
16
0F
06
FF
FC
01
FC
F4
F8
FC
FE
02
00
F6
FE
09
FD
E8
FD
FC
EE
EC
F9
01
04
08
07
0B
13
08
F7
EF
E6
FC
00
F6
F9
FE
FD
01
01
FC
FF
05
00
E7
F3
FB
EE
EB
FD
04
03
07
0E
0F
11
06
ED
EB
F4
02
02
FC
FE
FD
FF
FE
FD
F3
00
03
00
E0
F4
F8
EB
ED
FD
00
00
0A
10
0E
0C
08
EC
F4
04
03
FF
FB
F7
FC
FD
01
FF
F4
01
08
FE
F2
FA
F6
F2
F8
FA
00
09
0C
0F
07
0A
02
F5
FB
0A
01
F4
F7
F6
FC
FD
FF
FF
F3
FE
05
F7
F4
F6
F0
FA
F8
F5
04
12
12
0B
FE
09
FB
EF
04
08
F6
F2
F2
FE
FF
00
FE
00
F7
00
FF
F5
E5
DB
F7
00
F5
F8
0A
15
0F
07
FB
FE
F0
EC
01
02
FB
EB
E6
FB
FC
00
FF
FD
FF
01
FA
F3
EB
E5
F7
FD
F4
FF
0D
10
0F
06
00
FF
EC
EE
00
F3
F3
DD
E4
01
01
00
FE
00
FD
FD
FA
F0
E8
E5
EB
FF
FE
06
0C
09
09
0A
02
FB
F5
F7
FA
F1
DD
DE
F1
09
05
01
00
00
FB
FF
F9
EA
E4
E3
F7
00
04
05
04
04
05
0B
08
07
F9
F2
D3
DC
E2
F1
FD
05
08
01
00
01
FC
FF
F8
DA
DB
F5
00
06
03
FC
FD
FF
07
0C
0B
0F
F9
E5
CB
E3
EB
F4
FE
03
07
02
FF
FD
FA
FA
F8
E3
E9
05
07
06
02
FF
02
02
05
0D
0B
04
F5
E2
CA
D5
D5
F0
05
08
06
03
FE
FC
F3
FB
04
02
03
0D
06
01
01
02
03
FD
02
08
FE
01
FB
FA
E2
DF
EB
F9
06
07
FF
FF
FE
FD
F9
FE
04
0B
0B
08
05
FE
03
09
09
09
0B
0C
02
00
02
11
05
F1
F8
F9
08
03
FE
FF
00
FD
F9
FD
02
04
06
FB
F7
00
0B
0B
0A
08
00
02
02
00
0C
18
13
F9
F3
FF
FC
FD
01
FF
FF
FD
FF
FE
F7
F9
04
FB
FC
FE
07
07
05
05
FF
FC
FE
F7
08
15
0A
F7
FF
FF
FD
FE
01
00
01
FD
00
01
F8
EF
F5
F6
01
FA
01
F0
F6
01
F2
F1
F3
EF
F9
05
FE
FA
FE
FF
FF
00
FF
FE
FE
FD
00
01
01
F5
F7
F3
FF
02
EB
CF
FC
04
F3
F1
EC
EF
F7
FA
00
FF
FF
FE
01
FF
01
02
FE
FD
01
01
00
FE
FF
FC
FF
01
F9
F5
F5
F3
F3
02
FA
FB
FE
FE
FD
FE
01
00
01
02
02
FF
00
FF
00
00
FF
F6
EE
F4
EC
D5
E0
EC
DD
DB
E4
E1
DB
F5
E1
EE
EE
F5
FD
00
FF
01
00
00
01
01
F9
FD
FC
FC
FD
FA
FA
FD
FB
FA
FA
FB
F8
F7
F9
F8
F9
FC
F9
FA
F9
FC
FC
FD
FD
FB
FB
FA
FA
FA
FD
FA
FB
FE
FA
FA
FC
FC
FC
FB
FC
FD
00
FB
FB
FC
FC
FD
FD
FA
FB
FA
FC
FA
FD
FD
FB
FB
FA
FD
FA
FC
FC
FE
FC
FD
FA
FF
FE
FC
FB
FD
FB
FD
FC
FD
FC
FD
FD
FC
FB
FC
FB
FC
FB
FC
F9
FD
FA
F9
FB
FD
FE
FE
FE
FF
FF
FE
FC
FB
FF
01
FF
FE
FE
FB
FA
FE
FC
FA
FA
FD
FC
FA
FB
FB
FA
FC
FD
FF
01
00
FE
01
02
0B
08
02
08
04
FE
FC
FE
FB
FC
FD
FC
FA
FB
FC
FC
FB
FD
FC
FB
FA
FE
01
01
02
0A
0B
0F
13
16
14
10
09
FE
FC
FE
FA
FA
FB
FD
FD
FC
FD
FB
FB
FD
FB
FB
FE
FE
01
02
05
0A
0D
14
1C
25
26
1F
10
0A
04
00
FD
FD
00
FF
FD
FD
FD
FD
FB
FB
FD
FD
FA
FC
FF
01
05
0F
11
14
20
2C
2C
2A
19
19
0C
04
03
01
00
FF
FD
FD
FC
FA
FB
FA
FA
FA
FB
FC
02
00
03
0D
12
1D
28
2B
31
25
1D
21
0F
0B
06
03
03
02
00
FD
FF
FD
F9
FC
F9
00
FD
FE
00
01
03
0C
12
17
26
22
26
24
1E
25
0F
09
06
01
03
02
00
FD
FC
FE
F9
FD
FD
FB
FE
FA
00
00
02
09
0F
18
23
11
10
1B
20
1E
0F
08
04
01
00
FF
FF
FF
FA
FD
FD
FD
F9
FD
FA
FB
FD
FE
03
06
0D
19
14
07
06
14
19
15
08
00
FF
03
00
FD
FE
FE
FD
FA
FA
F9
FB
FB
F9
FC
FD
FB
01
03
0E
19
08
05
03
0F
14
10
05
00
FF
00
FE
FD
FE
FC
FE
FB
FD
FD
FB
FC
FC
FA
FB
00
04
06
0C
1C
09
05
FF
06
0D
06
02
00
03
01
FF
FC
FB
FD
FC
FC
FB
FC
F9
FD
FD
FB
FB
FC
FF
05
11
1C
0F
03
FE
03
0C
02
02
02
03
FF
FF
FE
FC
FB
FA
FA
FC
FB
F8
FA
FC
FC
FE
FE
04
0C
15
1C
12
FC
FB
07
0D
05
07
07
06
01
FE
FC
FC
FA
FA
FC
FC
F9
FC
FE
FE
FF
FE
00
0A
12
22
27
14
FB
F9
12
11
07
0B
06
02
FE
FD
FE
FD
FA
FC
FE
FC
F9
FC
FF
FF
01
FF
03
0E
18
26
27
0F
FA
05
20
1B
0F
09
02
01
FF
FC
FB
FC
FA
FA
FD
FD
FC
FA
FB
FE
FC
FD
01
0C
0F
1F
21
0B
FE
1B
30
22
0D
05
04
FF
FE
FD
FC
FE
FD
FB
FE
FB
FB
F8
F9
F5
F9
FD
FC
05
0D
17
17
0C
15
2D
2F
21
0C
00
FD
FE
FE
FA
FD
F8
F9
FA
FD
FC
F8
F6
FB
F8
F8
F7
F8
00
08
13
16
1F
27
30
2B
1A
03
FC
FA
F9
FC
FB
FA
FA
F9
F9
FA
FC
F9
FB
FB
F7
F8
F9
F8
FD
06
11
1D
26
30
2B
1D
0B
FD
FD
F7
F6
FA
F9
FB
FC
FB
F9
FB
FE
FD
FC
FC
F6
F6
FA
F9
FE
04
0F
1D
24
26
21
0A
FE
F5
F7
F5
F6
F5
FA
FD
FB
F9
F9
FD
FB
FC
FF
F8
F9
F8
FE
FC
FB
06
0A
14
19
10
0C
FE
F9
F8
F6
F6
F7
FA
F9
FC
FB
FC
FC
FA
FD
FA
FA
FB
F8
FA
FE
F9
FF
05
0A
0F
0C
05
00
FA
F7
FC
FA
FA
F9
FD
FB
FC
FA
FA
FD
FC
FC
F9
FA
FB
FA
FB
FD
FB
FD
FE
FB
FF
FB
FA
FA
FA
FC
FB
FB
FC
FC
FE
FA
FB
FC
FA
FD
FA
FC
FB
FD
FE
FE
FC
FE
FD
FB
FE
FC
FE
FF
00
01
FC
FD
FE
FC
FA
FA
FD
FB
FE
FD
FC
FD
FA
FD
FD
FB
FD
FC
FD
FD
FF
00
00
00
01
00
FE
FF
00
FE
FD
FB
FE
FB
FA
FB
FB
FC
FA
FE
FF
FF
FE
00
FE
01
FF
FE
FF
00
01
02
02
FE
01
01
FF
02
01
FE
01
02
FF
FE
FF
FE
01
FD
FD
02
FF
01
02
00
02
FE
01
00
00
00
FE
01
00
FF
02
01
02
00
00
FE
01
FF
FF
00
FE
00
FF
FE
FE
FE
FE
FF
FE
FF
01
02
FE
FD
02
02
FF
01
03
01
00
00
00
FF
FE
FE
FE
00
00
00
00
01
00
FE
FF
02
00
00
02
01
02
01
FE
FA
FC
FD
FE
00
FF
01
01
01
FD
02
01
FF
FF
01
FF
01
FE
00
02
FF
FE
FE
FE
00
FD
FC
F8
F2
F5
F4
F9
FC
FC
FC
FD
FF
FE
01
FF
01
00
FF
01
00
01
03
01
02
01
01
01
FC
F5
F0
F2
EF
EF
F4
F6
EE
F1
F8
F6
FE
FF
FF
00
FF
FF
00
FE
02
00
FF
04
04
03
02
03
FF
FA
F0
ED
EC
EB
EA
E2
DD
E2
E9
EE
F2
F4
F7
FB
FC
00
FE
00
01
FF
02
FF
04
03
02
06
04
FE
F7
F1
ED
EA
E9
E0
D7
DA
DF
DE
EA
ED
F6
FB
FD
FE
FF
FE
01
FF
FF
01
FF
FB
FD
04
03
02
FB
FA
F4
EF
EE
F2
E4
E0
DE
E5
EA
EE
F2
FA
FD
FD
00
FD
FE
FF
01
FF
FE
00
01
FF
01
01
FD
FA
01
FC
FE
F8
F4
E8
E3
EA
F2
F7
FA
F8
F9
01
FF
01
FF
FE
FF
FC
01
06
0B
0A
09
08
00
03
06
0D
09
06
F8
E5
E5
F1
FC
02
FF
FE
FD
01
FF
00
FF
02
00
FC
FC
02
04
0A
09
03
01
FD
05
08
05
03
F5
F1
EF
F5
FE
01
03
01
00
00
01
FD
FF
FF
01
FC
F9
F9
FB
FE
00
FE
F9
F9
FA
02
06
FB
F5
F2
F4
FD
00
01
00
FF
02
FE
01
01
00
02
01
FE
FF
FC
FF
FD
FB
F8
F0
F4
F5
04
02
FC
F3
F1
FD
06
03
00
01
01
00
01
02
FE
02
01
00
00
03
03
05
03
02
F9
F0
EA
F2
FB
F9
F6
F4
F3
FB
FF
00
00
00
FE
00
00
FE
FD
01
02
02
02
05
05
05
06
06
FA
F0
EF
F0
F3
F3
F2
EC
F3
FC
FD
FE
FF
01
00
02
02
02
00
00
FE
01
02
FE
02
04
06
02
F6
F2
F3
FB
FE
FC
F7
E5
E9
F2
F8
FD
FE
00
02
00
02
FE
FF
02
FF
03
FF
FF
FE
02
04
FF
F3
F1
FA
FC
00
FD
F3
EF
F0
F4
F7
FB
FF
01
01
01
01
01
00
00
01
01
02
01
00
FB
FE
F4
F0
EC
F3
FA
F9
F7
F4
F2
F5
FD
02
06
06
03
00
FF
00
FF
FE
FF
01
02
00
FD
FB
F9
F6
F8
F2
F3
F1
F4
FB
FA
FD
FB
FE
04
00
00
FE
FF
02
00
FF
00
FE
02
01
00
03
05
06
08
05
04
01
FF
FB
FA
FD
04
05
08
06
09
09
05
01
02
05
04
FF
00
FF
02
FF
FD
FD
FD
01
02
08
04
01
FF
03
04
05
0C
16
17
18
14
13
11
0F
0E
07
05
FF
01
FD
01
03
06
05
02
04
05
05
03
00
FF
FE
01
05
06
0E
14
13
10
0A
0B
09
0A
09
04
FF
FE
00
00
01
05
0C
0C
0C
04
01
FC
FE
FC
FA
FF
02
06
05
03
0B
09
0B
06
01
02
03
02
03
03
00
FF
FF
FE
02
06
07
FF
FB
FC
FC
FF
03
01
03
02
06
00
00
05
05
04
FE
FE
FE
00
FF
03
FE
02
01
FE
FC
FD
FB
FD
F9
FA
FE
00
05
03
FF
F9
F8
FB
FF
00
02
01
FF
FE
FC
FE
01
FF
01
01
FF
00
FF
FD
F9
FF
02
FE
FA
FC
04
05
01
FB
F8
FA
FD
FE
FD
FE
FE
FD
FD
01
00
02
FE
FF
FF
01
FF
02
FF
03
04
03
FC
FB
00
04
04
FE
FD
FF
FE
FD
FE
FE
FE
00
FE
FF
FF
02
00
FF
02
02
FF
01
03
01
03
04
03
06
02
F9
FB
01
06
03
03
FE
FE
FE
FE
01
02
03
00
00
FF
01
FF
FF
00
FF
00
FE
FB
00
00
03
03
00
01
02
02
01
03
FE
FA
FB
FE
FE
02
02
01
01
00
02
FF
FE
FF
FE
00
FE
FE
FF
00
FF
04
06
02
03
01
00
02
00
FD
FB
FE
FC
FD
FF
01
02
FE
01
02
01
01
FF
FE
FC
FF
00
00
FB
04
08
01
00
FF
FC
01
FF
02
00
03
01
02
FF
01
02
FE
FF
00
00
01
01
F9
FA
FC
FF
FC
F9
01
07
0C
0C
04
03
05
03
FD
01
04
01
FE
FE
FF
01
FF
00
01
02
FF
FF
FE
F8
FA
FA
FF
F7
F5
04
09
0B
10
07
01
FE
FF
FE
03
FF
FC
02
03
02
00
01
FF
FF
01
00
FE
01
FC
00
06
07
01
03
09
07
0A
03
02
FC
00
FD
03
00
FE
01
02
FF
FF
00
00
02
01
FD
FE
FC
FA
F8
FC
01
F8
FC
FC
05
08
07
FE
00
02
FE
00
01
03
FF
00
00
01
00
FE
FE
FC
FD
FC
FC
FB
F7
F8
FA
F8
F9
FB
FC
F7
01
01
02
F9
01
FF
FE
01
04
01
FF
FD
00
FE
00
03
04
07
08
03
02
01
03
FF
FF
02
02
00
05
FD
FF
FB
FC
FD
FC
01
FF
FF
01
01
FF
00
FC
01
08
FF
F9
00
02
04
05
FF
05
05
09
FF
05
F7
FF
00
F8
FC
F9
FE
02
01
00
FF
00
FF
FF
00
02
FE
F7
FA
F6
F8
FA
FD
05
07
06
00
FD
F4
FB
F9
F6
F9
01
01
08
03
00
FE
01
FE
00
02
03
FB
F8
FA
F7
F6
FA
07
0D
06
05
FC
F9
EF
FC
F7
EE
F3
FB
03
01
FF
03
FF
02
FD
00
02
FD
F9
FB
FC
F8
F6
FC
04
0A
04
FD
F8
F3
F3
00
FB
F4
F8
F9
FD
02
02
01
01
00
00
FF
03
FE
FD
FE
F9
FF
FB
00
01
05
04
F0
F2
F7
F2
FA
FD
05
04
01
01
02
03
FF
01
FE
00
00
01
FF
FC
FA
F9
F9
FB
FB
FA
F8
F1
F2
EA
F7
F7
FF
FC
06
07
04
02
04
FF
FF
00
01
01
01
00
FC
FE
FF
F8
01
FE
FD
E9
EB
E8
E8
EB
F9
FB
01
FF
01
03
04
03
02
FE
01
01
01
FD
FF
F9
FC
FB
FE
FD
00
FC
F1
E4
ED
EA
EF
F6
03
09
05
06
08
08
04
00
FF
00
00
01
FD
FF
FD
F9
FB
FA
FC
02
FD
FF
01
F7
F3
FF
FC
02
08
08
06
0D
12
10
07
02
02
01
FF
01
00
01
FE
FC
FE
FE
FF
02
04
08
08
06
FF
FB
F9
03
05
0E
0E
08
05
05
02
00
FE
FF
01
FE
FD
FE
04
08
05
04
02
04
03
08
01
F9
F9
00
FD
01
0A
0D
0E
0C
0A
0C
06
04
00
00
00
00
FE
00
03
06
07
00
03
02
02
01
00
FA
FE
03
08
0B
0E
0B
10
0B
09
08
02
01
FD
FF
00
FE
FD
02
01
02
04
FC
FE
FE
FD
FE
00
01
FD
02
03
FF
04
09
07
FD
03
05
FE
FF
FF
00
03
FD
FF
FF
02
05
FE
F9
F7
F4
F3
FA
04
01
01
00
00
FE
03
08
03
03
03
01
FF
01
FE
00
FF
00
FE
02
03
03
04
03
02
FE
FF
02
03
00
01
06
04
06
05
03
02
01
FF
00
FF
FF
FE
FD
02
01
01
FE
FF
01
FF
01
FF
04
07
06
07
05
02
08
06
08
08
06
01
FF
02
03
02
01
00
00
FF
01
01
FF
FE
FD
FE
FF
FE
FF
FF
02
06
07
07
08
05
07
07
07
03
00
00
01
FF
02
FF
FE
02
FE
FF
00
01
FE
FE
FF
FF
00
FF
02
FE
02
02
02
03
04
05
02
01
00
02
00
01
02
FE
00
03
01
00
FF
FF
FE
FF
FC
FF
FF
00
00
00
FC
FF
00
FF
FD
00
FD
01
FE
FE
00
FF
FC
FE
FF
01
01
00
FE
01
FF
FF
FE
00
FF
00
FF
FF
00
FE
FF
00
02
00
00
02
FF
FE
01
00
01
01
FD
FD
00
00
FE
FF
FF
FF
FF
01
00
00
FD
FE
FD
FD
00
FF
01
00
FF
FD
01
01
02
FD
02
FF
01
FE
01
02
FE
01
01
FF
00
FF
FE
FD
FD
FE
FE
FD
01
00
01
FD
FC
FE
FF
00
00
FF
FF
00
FE
FF
FE
FF
00
FE
FD
00
FF
00
00
03
05
04
06
07
07
01
03
01
01
FD
FA
FC
FE
FE
FF
FE
01
FD
FF
02
00
00
FD
FD
FE
00
0A
0B
0E
0E
0D
07
01
01
00
03
01
FA
FB
FA
FC
FD
01
FE
01
00
00
02
01
FF
01
FE
02
05
0A
09
08
08
08
05
02
04
03
07
01
F9
F7
F5
F2
F9
FD
FC
FE
00
01
01
01
FD
FD
FC
00
08
08
0A
08
08
09
0A
09
04
03
02
FE
FB
F1
EE
F2
F7
F6
FB
01
FE
00
01
FE
FF
FF
05
0A
0C
0F
0D
0B
0A
08
09
08
08
01
02
02
FF
F8
F2
F3
F6
FA
FF
00
FE
02
FE
01
01
00
01
04
06
05
0B
0C
09
06
04
03
05
02
03
02
FB
F0
F2
F4
F7
FA
FD
FF
01
02
01
00
01
03
07
07
08
07
07
07
06
05
03
02
01
05
FD
FA
F7
F1
F2
FB
04
00
FE
FD
FD
FF
FF
01
FF
03
07
0C
0D
09
09
0D
0F
0E
0C
0A
02
FD
F8
F9
F2
F3
FA
00
05
FF
FD
FC
FE
FE
FD
01
01
02
0C
0E
0F
14
13
0E
11
0C
05
FF
F8
F7
F8
F6
F5
F5
01
FF
01
02
FF
FD
FE
FE
FF
FD
00
03
0C
0E
15
13
0F
07
04
FD
FD
FA
F2
F5
F9
F5
F9
00
00
01
04
01
04
03
00
00
FE
00
00
02
05
09
0C
08
05
02
03
06
07
02
F6
F9
F9
FC
FE
FE
02
08
0A
0B
09
06
02
01
01
FF
FE
FF
00
FF
01
FE
FD
FB
FE
01
01
FE
FE
FC
FF
03
05
FF
06
10
14
17
0C
05
FE
FE
FE
FE
FE
FE
FE
F8
FB
FD
FE
F7
FB
01
05
01
02
02
01
01
08
08
09
13
16
15
12
07
04
FF
01
FE
FF
00
FC
FA
FD
F9
00
01
0A
0D
10
0C
04
06
04
04
08
0B
0E
12
12
0F
0C
0A
05
FE
02
01
01
FE
00
FE
FD
FD
FF
05
0E
11
0C
07
02
01
06
09
0D
0E
10
0B
0D
08
08
08
01
FE
FE
FF
02
03
03
05
00
FE
FD
FE
00
04
09
06
05
06
09
0C
0C
10
10
10
0D
0C
06
02
FF
00
01
01
FE
00
FF
FF
F9
FC
FD
FD
FF
04
06
06
06
09
08
0C
0A
09
0A
0C
09
04
00
FF
01
01
FE
FE
02
00
FD
FE
FC
F8
FC
FD
05
04
02
06
06
05
05
09
07
09
0B
0A
06
00
FC
FF
00
02
FF
01
05
05
04
FD
FF
FB
FC
FD
FE
02
01
01
05
04
07
0C
0C
08
06
05
03
FD
FC
00
00
00
02
03
04
07
05
02
00
FF
02
05
02
02
03
09
08
0A
0C
0B
0C
07
01
00
02
03
01
FF
00
00
00
FE
00
FD
FD
FE
FD
00
02
01
03
06
07
06
09
0B
0B
0A
0B
07
02
02
04
02
02
FD
FF
01
00
FF
FD
FC
F7
F7
F6
FA
FE
00
01
04
04
06
09
0A
0B
0B
06
02
FE
01
01
FF
02
FE
00
00
FE
01
FC
FA
FA
F7
F9
F8
FB
FB
FC
FF
01
03
03
05
08
07
02
01
FF
01
02
FE
FF
FF
01
00
FF
01
FE
FE
FE
FC
FC
FB
FA
F8
FC
FD
FE
00
FF
FE
FF
00
FD
FD
FE
FE
FE
00
FD
FF
00
02
05
03
02
03
02
02
05
03
01
04
01
04
04
05
04
05
00
04
04
01
05
03
01
02
02
02
01
01
00
00
01
FE
FB
FF
13
14
0E
07
01
FF
FA
13
17
10
F2
F5
01
FE
03
09
05
00
02
00
07
FF
03
FE
FB
FB
03
03
11
19
0F
09
05
FE
FF
FF
0A
01
E7
EF
F6
EE
FF
09
02
01
02
01
07
01
03
FB
ED
03
0F
FF
05
10
0A
04
FF
02
01
F3
FD
F1
DC
DC
E2
DE
F2
FD
FF
00
01
FF
07
02
01
FC
F1
FD
0C
FC
FC
FE
FB
F8
F6
F6
F9
F1
F7
E4
DE
D3
D4
D1
EA
EE
00
03
00
03
08
FD
02
05
FD
F5
FD
F7
F1
F5
ED
FA
ED
ED
ED
FE
F4
DD
DD
DC
D3
D6
EF
F4
15
FF
01
00
05
FD
03
0B
05
F0
EF
F4
EE
EC
EF
F4
EA
F2
FB
FF
FC
ED
DE
ED
DF
EA
F1
0B
05
00
03
03
08
03
04
0B
04
F1
EE
F6
FE
F6
F9
FD
EF
03
00
F6
04
0B
F4
EF
F8
F8
01
03
FC
00
FF
02
09
03
FF
02
FE
F8
F4
EF
FD
FC
02
FF
F4
06
04
FB
0D
0F
0F
01
06
0E
0A
0C
04
03
07
FF
09
FF
F9
F4
F7
FE
FC
EE
FD
FA
03
FA
FD
F7
05
FF
10
0D
1B
0B
10
13
0B
1B
14
0A
0A
03
05
00
F1
EF
FC
08
FD
E7
F6
EC
ED
FA
F9
E6
01
02
17
03
19
10
09
11
12
1C
1B
0C
08
04
05
FD
F3
EE
FA
01
F5
E8
F3
DE
E0
EC
EC
E5
F2
FE
09
09
14
17
01
14
12
14
19
0E
03
04
06
FD
F8
F3
F8
F4
EB
ED
EC
D9
D6
E4
D6
E8
EF
F4
00
03
08
04
10
0E
11
FC
0E
06
01
00
06
FD
FC
F8
F5
F4
F2
F2
EC
D8
E1
DD
DC
E6
E4
EA
08
FB
F0
02
0E
0C
FE
F1
07
06
00
03
04
FB
00
02
F3
FB
05
FC
E6
E0
E1
D8
DC
E6
E4
EF
04
F0
EF
F8
04
F4
EA
D8
F8
09
02
02
01
F9
07
0A
FB
00
07
FA
EA
F2
EF
E2
E6
E7
EB
F7
02
EE
EF
EB
F5
DE
D8
D2
F1
FE
02
03
03
FF
0C
0D
00
00
08
02
F6
01
03
EA
F5
EE
F9
FA
07
01
F7
D5
ED
E1
D2
CA
F2
F3
FD
03
00
04
0D
0A
04
00
01
0C
05
04
08
03
0E
FD
F8
FE
05
02
ED
E2
EF
F2
DE
CD
EF
F1
FE
01
03
FD
0F
0F
06
01
09
11
0A
08
10
10
1A
04
F6
FD
04
FC
F1
F5
EE
F6
E4
E1
EA
FA
00
03
03
08
12
0D
07
01
06
11
0D
11
18
14
13
05
F2
02
FD
F5
F2
F9
F9
F5
ED
E9
F2
FB
FC
01
06
13
1A
0D
07
06
05
0A
0B
14
1A
13
11
04
EB
FF
F3
FA
FC
FE
FA
FE
F9
FA
F3
00
FE
03
09
13
15
0C
01
09
09
0A
00
10
14
11
08
01
EC
F4
F9
04
04
FF
FD
0A
FC
FD
F1
FE
00
00
06
0A
11
05
FC
0A
0C
01
00
09
00
00
03
EF
EC
E9
F8
01
FE
F5
FA
08
F7
FD
F7
FF
00
01
0A
04
02
F2
F3
FF
00
F8
F7
FD
E4
F3
FD
F2
DE
D8
E9
E9
F2
EA
F3
09
EF
FB
F8
01
01
02
07
00
EF
E7
DB
ED
FC
EA
E5
E1
DA
F8
FF
E7
D7
D2
DA
DD
E1
DE
F1
FB
E9
F3
04
01
00
FF
09
03
F7
E3
DB
E8
F7
DC
CF
C8
D8
E3
DE
DC
E4
D3
DA
DF
DF
DC
F0
FB
F4
FD
00
00
03
00
0A
00
FD
FB
F1
EC
FE
EA
DF
E5
E6
E4
E2
E2
F9
E3
EA
E8
E6
F4
00
01
FE
01
02
01
00
01
08
01
F8
E4
C9
F0
CD
CC
C7
C7
BF
C9
D5
D4
E1
CC
EC
E0
E2
E2
E4
E0
E0
02
FE
FF
00
00
0E
01
FF
00
01
00
00
01
FD
FD
FE
01
FF
FE
01
00
03
01
00
00
00
FF
FF
00
00
01
01
FE
FD
FE
00
FF
00
00
01
02
08
0C
0B
03
08
03
03
07
07
07
FD
F7
F5
FC
FE
02
00
03
01
02
FE
FF
FF
FE
FE
FC
00
02
0A
0E
0F
0C
06
06
05
04
02
02
FA
F6
EF
F0
F7
FA
00
02
01
00
FE
FD
02
01
FA
FD
03
05
05
0B
0A
09
08
08
07
03
05
03
00
F7
F4
F0
F3
F6
F9
FE
04
00
FE
FD
03
FF
FB
FE
01
06
04
08
06
08
05
07
02
02
03
04
03
FD
F9
F5
F4
F1
F0
FA
01
00
FD
F3
01
05
FF
02
FF
03
03
01
04
06
06
05
05
02
03
02
03
02
FF
00
FD
F7
EF
F7
FF
FE
FE
FA
02
05
05
02
00
FF
03
FF
03
04
03
04
03
05
05
00
03
00
01
00
FF
FB
F3
F0
F3
FE
FD
FD
05
0A
05
00
FF
FF
00
01
01
02
07
06
05
03
FF
FF
FF
FF
00
01
FE
FD
F3
EE
F7
FC
FE
02
04
06
04
03
FF
FE
FE
FD
02
04
02
02
06
03
04
FE
FF
00
FF
02
01
FD
F5
EB
F6
00
FC
FB
FF
00
00
01
FF
FB
F7
F8
FE
01
FD
03
FF
01
03
FF
FD
FD
FF
01
FE
FD
FC
F3
F2
FC
FD
FF
00
FC
FD
FD
F9
F9
F5
F9
F7
F9
FA
FA
FD
FE
FD
00
FF
01
00
FF
FD
FB
FF
FE
FC
FE
FE
F7
F8
F7
FA
F8
F6
F5
F2
F3
F4
F7
F8
F7
F7
F6
FB
FF
00
03
00
00
FE
FC
FD
06
0B
01
FE
FA
FA
F6
F3
F3
EE
F0
F4
F6
F6
F9
F9
F9
F9
F8
F8
FD
FF
03
02
FE
FE
FB
00
0A
12
10
00
FB
FB
F7
F3
EF
F3
F3
F7
FC
FB
FD
FE
FE
FE
F8
FC
FD
00
01
FF
FF
FD
02
07
12
17
15
02
F8
FD
FD
FA
F6
F8
FC
FC
FC
03
04
07
05
01
FD
FC
FB
FE
FF
FE
FB
FD
02
08
12
1D
1A
09
F6
01
02
03
FF
FF
01
FE
01
04
06
08
06
05
00
01
FB
FD
FC
FD
FD
FB
00
09
15
1E
1B
0A
FB
07
06
05
05
05
03
05
04
0A
0C
0B
09
04
02
00
FF
FC
FD
FA
00
00
02
06
14
1F
1B
0E
FF
07
0C
08
07
06
0A
07
06
08
0B
08
06
04
FF
FE
FD
FD
FE
FF
FF
03
01
05
0C
16
14
0D
FC
02
08
0D
0C
09
0A
08
07
06
06
08
04
05
00
FE
00
FD
FC
01
00
04
03
04
09
10
12
06
FD
04
08
08
07
07
0B
0A
05
06
07
05
04
01
01
03
FF
00
FF
02
FF
01
04
03
07
0E
0F
05
08
0C
0C
0B
08
09
09
07
07
04
05
04
FF
01
02
04
05
04
03
05
03
02
02
06
07
02
06
01
0A
0C
0D
09
05
06
04
01
03
01
04
02
FD
00
01
05
05
0A
09
05
04
04
07
05
06
02
05
01
09
0A
07
03
02
02
04
04
02
01
FF
00
FE
FF
00
03
08
0A
0A
09
09
08
06
07
07
04
FF
00
01
05
FD
FB
FE
00
00
00
FD
00
FF
FD
01
FE
FE
01
05
08
07
07
08
09
0A
08
07
02
FE
FC
FE
FB
F1
EB
EE
F0
F2
F5
F7
F6
FC
FC
FC
FF
00
01
04
08
03
02
01
04
05
0A
08
05
FE
FB
FB
FC
F5
EC
E8
EF
EF
EC
E8
ED
F0
F9
FA
FE
00
03
00
01
FC
FD
FA
FB
FF
01
00
05
01
FE
FE
02
FB
F6
F3
EE
EB
E9
E7
E9
EA
ED
F6
FC
FD
FA
F6
F7
F6
F8
F7
FD
FB
FB
00
FF
01
00
00
02
F6
F9
F7
F2
F0
EB
E2
E2
E3
EE
E6
F0
F3
F2
EA
E8
E5
E8
F0
F0
F4
F9
F7
FE
FE
01
03
01
03
01
02
02
FF
03
03
02
02
00
FE
02
01
03
01
01
03
04
00
01
03
03
03
03
01
FF
00
FF
FF
02
02
02
00
02
03
01
FF
01
FE
FF
FE
00
FF
00
00
04
04
01
01
00
03
02
01
03
03
FF
01
03
01
01
02
02
02
FE
FF
01
FE
FE
FE
02
03
03
03
02
04
05
01
03
04
03
02
00
00
03
00
00
00
03
04
04
FF
01
FD
FF
FD
FC
FD
00
01
01
03
00
02
05
01
01
01
04
00
01
02
01
00
02
04
04
04
FF
01
01
01
03
01
FE
FB
FF
04
07
03
05
07
06
06
05
00
02
03
01
01
00
00
FF
03
04
03
03
03
06
03
00
00
FE
FC
02
07
08
0B
0A
0C
0C
06
02
00
03
00
01
00
FF
02
02
03
03
00
00
05
01
FC
FB
FD
FB
F9
FC
05
0A
0F
0E
0E
0A
09
06
04
03
00
03
FF
03
01
02
03
01
01
01
04
FF
FC
04
FC
F7
F5
F9
02
07
10
10
0F
0E
06
04
02
00
02
02
03
FF
03
01
04
00
FD
02
05
04
04
03
02
FF
02
FE
00
0A
0D
0E
11
0E
05
03
02
03
01
01
00
03
01
03
FD
00
FD
FF
02
03
06
07
04
01
01
FD
07
0A
0D
0F
0F
0B
04
02
01
03
FF
00
03
01
01
03
FC
00
FE
FC
FF
FF
FF
FF
00
FA
FF
00
04
07
0E
0F
10
08
03
03
FF
FF
01
FE
00
01
00
03
FC
FC
FC
FF
FE
FF
03
FF
FB
F7
FA
01
08
0C
12
11
0B
07
01
01
FE
FE
FF
01
00
00
03
01
FE
FE
FE
FA
FC
FF
FE
FD
FF
F9
02
01
0A
10
13
10
07
07
03
02
FD
FC
FC
00
00
02
01
01
00
FE
F9
FB
FE
FF
03
FF
FA
FB
00
FF
0B
13
14
0B
07
02
FF
FD
FC
FD
FC
FE
00
01
00
FE
01
FF
FE
FD
00
04
FF
FD
F4
FA
F9
00
0B
15
10
07
03
01
FC
F6
FA
F7
FC
FF
00
00
FF
02
01
02
FF
00
03
04
FF
FD
F6
F5
05
01
0B
15
13
08
04
01
FB
F6
F9
FB
FD
FE
00
03
02
00
FF
00
FF
02
07
06
06
02
F5
FD
FF
00
0C
10
0C
06
01
FB
F8
F6
F6
F7
FE
FC
FF
FF
FF
00
03
00
FE
00
03
04
08
FC
F7
FA
FA
FB
01
04
03
FE
FA
F8
F3
F4
F7
FD
00
FF
00
00
03
FF
00
FF
01
01
07
07
0B
03
FC
FC
FE
FB
FA
FA
F7
F4
F2
F3
F2
F3
F7
FA
FD
FE
00
03
00
01
00
00
04
07
09
08
06
03
00
FF
FB
EF
EF
E8
E6
E9
EA
ED
F3
F6
FA
00
01
02
02
02
02
00
00
00
02
04
04
09
08
07
05
06
00
FC
EB
E4
E2
E4
E7
ED
F5
F5
FD
01
02
02
00
01
01
03
03
02
04
05
07
08
07
0C
10
0D
03
FB
F0
E9
E5
E6
E9
F0
F3
F7
FF
FE
03
FF
02
02
01
02
03
03
05
06
07
0B
06
0E
10
0E
0A
00
F9
F1
EB
EA
F1
F3
F8
FD
FF
FF
00
00
03
FF
02
03
02
04
04
07
07
08
0B
0E
11
0C
0B
06
FE
F8
F2
F5
F6
F9
FB
FB
01
02
FF
03
02
01
00
01
03
04
04
03
04
07
0A
06
0A
06
07
03
FF
F9
F8
FA
FA
FF
FF
01
FF
01
00
FF
02
03
02
01
04
04
05
02
04
04
06
04
06
03
06
FF
FE
FC
FC
FC
00
FF
FF
00
FF
00
01
02
00
02
01
01
05
06
06
05
05
04
03
04
05
00
03
01
01
FD
FE
FF
00
FF
01
02
01
02
FF
02
FB
FD
FB
FC
FE
FE
FB
FC
FE
00
01
00
FB
FD
FD
FD
FD
FB
FE
FC
FC
FD
FB
FB
FC
FB
FC
00
00
02
FF
00
01
FF
FF
FF
00
00
FE
FF
00
00
03
02
02
03
02
FF
00
00
FF
00
03
02
00
00
02
02
02
FF
02
01
01
FE
00
01
02
01
00
02
06
03
07
06
00
FE
FE
00
FF
02
03
02
02
00
FF
02
03
03
00
FE
FF
02
05
0A
09
08
06
06
FF
FE
FF
FD
FB
F6
F5
F7
FA
FF
00
00
00
FE
01
02
01
FF
02
FF
02
04
08
08
08
07
05
04
00
FD
03
00
FD
FA
F9
F4
F8
FD
FC
FE
FF
01
02
00
03
01
FE
03
05
04
04
06
02
02
03
00
01
FF
02
02
04
00
FD
FC
F9
F9
F7
FB
01
02
03
00
02
00
04
02
02
01
02
02
02
04
02
00
FE
FF
00
02
02
FE
FD
FE
01
02
F7
F8
FF
FE
00
FF
01
05
05
03
02
FF
FF
02
02
00
01
04
FF
FF
FA
FC
FC
FA
FD
FF
01
FD
F2
FA
FB
01
02
00
02
07
04
02
FF
FD
00
02
02
03
04
01
00
FC
FC
FE
FE
FA
FF
02
01
00
F6
FC
FC
FD
01
01
04
09
04
FF
FA
FC
FE
FF
02
05
04
01
03
FF
01
04
FF
FD
01
01
02
01
01
F2
FC
FD
01
03
02
04
FE
FF
FB
FC
FB
FB
02
FE
01
FE
00
FD
05
02
00
02
02
07
04
03
FC
FA
FC
00
02
03
01
FC
F8
FB
F5
F1
F4
F7
F7
FA
F7
F5
F5
FC
FF
FF
FF
02
02
06
02
00
03
FC
02
02
03
02
FE
F5
F6
F1
ED
EA
ED
ED
F3
F2
F1
F2
F2
F8
FE
FD
01
05
06
00
FE
01
04
07
09
06
FF
02
FE
F6
F1
EC
E6
E6
EA
ED
F2
F5
F6
FA
FA
FD
FE
FF
01
06
08
00
FD
03
04
0F
0F
0C
02
00
FC
F9
EC
EA
EA
EE
F1
F6
F9
FF
02
04
02
03
FD
FF
05
08
04
03
FD
06
0D
17
11
0C
FE
FD
FB
FA
F2
F3
F4
F5
F9
FC
03
06
0B
08
06
05
FF
03
03
03
FF
FB
FC
04
0C
11
13
0F
FE
FF
FF
00
00
FF
01
FF
04
05
09
0C
0B
0B
08
03
01
00
01
00
FD
FB
FB
01
0C
11
14
10
FE
FD
03
06
04
05
03
06
08
0B
0F
10
0F
0B
09
06
FF
FF
FD
FE
00
00
00
00
05
0C
10
0D
02
FE
03
0B
07
05
08
05
09
0E
0E
0E
08
06
05
02
FC
00
FD
FD
FD
FB
FF
FD
00
0A
0E
05
03
00
FE
06
06
06
09
0C
09
0A
0C
08
04
02
00
01
FF
FE
FB
FD
FA
FE
FF
00
01
03
07
05
01
02
03
08
05
0A
0A
0C
09
08
0A
06
05
FF
FD
FD
FD
FD
F9
F9
FC
FF
FC
F9
FA
00
06
04
00
00
04
08
0B
0A
09
0A
0C
05
07
00
FF
FB
F9
00
FE
FE
FB
FD
00
FF
F9
F9
F5
01
04
00
02
01
08
09
08
08
0C
09
08
04
03
FB
F9
F9
FE
00
01
00
FF
FD
FC
F5
F2
F7
FE
01
FE
00
01
01
04
03
06
05
05
07
02
02
FE
FD
FA
FC
FD
FF
FE
FB
FA
F7
F7
F8
F4
F9
FF
FB
FB
01
02
01
01
00
F8
F6
F7
F6
F7
F5
F2
F7
FA
FD
FD
F9
F9
FD
FC
F8
FA
F8
FC
F9
FE
FF
02
03
FF
02
00
FC
F5
F3
F1
EF
EF
ED
E7
EF
F6
F5
F2
F6
F7
F8
FA
F2
F1
FB
FC
FB
FE
03
00
FF
FF
02
00
FF
FC
F7
F4
F4
F0
E8
E9
F0
F0
F4
F3
F5
F0
F2
EF
EA
F3
F6
FD
FD
FE
02
02
FF
01
02
02
02
FF
FC
FE
FD
FB
F7
F8
FC
FA
FB
FE
FC
FC
F7
FB
FD
FF
FD
FE
02
02
FF
02
FF
FF
FF
01
FE
FF
FA
F5
F6
F4
F4
F6
EB
F6
F3
F8
F5
F7
F1
F8
F6
F9
F6
FE
FC
01
FF
FF
FF
00
01
00
FF
00
01
FE
02
01
02
01
FF
02
01
03
03
01
01
00
FF
FD
00
FF
01
02
FF
00
01
FE
FF
01
FF
FA
F8
FB
03
0D
0F
11
13
0F
0B
09
07
05
FF
FA
ED
E9
ED
F3
FC
00
00
02
FF
00
00
FC
F8
F7
FA
02
0C
0C
0D
10
0B
0A
05
04
02
01
FF
FA
F6
F3
ED
ED
EE
F2
FB
FD
FE
02
FF
FB
F9
F9
FA
01
09
06
08
08
08
09
04
05
03
02
01
01
FE
F9
F3
F4
F4
F2
F3
F7
F9
FF
FF
FA
F9
FE
02
03
05
02
04
02
05
05
05
06
00
02
04
01
FF
FE
FB
FA
F0
EC
E7
F4
F6
00
FF
04
01
02
00
01
03
04
03
04
02
05
05
04
01
00
00
00
01
FF
FE
FE
FC
F5
EF
F6
EC
FF
04
03
02
FF
00
02
00
FF
00
FE
FF
FF
03
01
FE
FF
FB
FA
F9
FC
F7
FA
FB
F1
EC
F1
EA
00
00
05
01
00
FE
00
FB
FB
FE
01
02
01
02
00
FC
FA
FA
F7
F8
FB
FA
FA
FA
F3
E7
E9
DE
FE
FE
01
01
00
FD
FF
FD
FC
00
01
04
00
FE
FF
FB
FC
FD
FC
FA
F9
FB
FB
FE
F6
EF
E3
E3
02
FD
FB
FE
FF
FE
FF
FC
FB
FD
FF
FF
FE
FA
FA
FA
FC
FA
FD
FA
FE
FE
FF
F9
FA
F7
F2
FE
01
FC
F7
FA
FA
F9
FA
F5
F6
FA
F8
FA
F5
F4
F4
F4
F7
FA
FD
00
01
FB
FB
F9
FB
02
04
00
00
F9
F9
F7
F2
F0
F0
F1
F5
F7
FA
F7
F9
F8
F5
F4
F6
FD
FF
01
FF
FD
FA
FF
02
0B
14
03
01
F7
F6
EE
ED
F0
F3
F6
FF
03
03
00
00
00
FD
FB
FA
FB
FD
FF
FF
00
02
04
0A
13
17
0D
01
F8
F8
F2
F2
F8
FC
02
06
08
0B
0A
0A
04
03
01
FD
00
FB
FF
02
FF
04
09
11
19
1E
10
FD
FC
F9
FA
FD
FE
05
0A
09
0B
0F
0F
0C
0B
07
01
03
03
01
02
04
03
02
0A
10
15
1C
17
00
02
00
02
07
07
09
0C
0D
09
0E
10
0D
0A
0A
05
04
02
02
00
02
01
04
09
0A
14
1D
18
FE
09
02
06
0B
08
08
0C
09
0A
0D
0B
09
05
06
03
02
FF
01
04
06
0A
0D
0F
0E
10
1D
12
FF
03
04
08
0D
0C
0A
0E
0C
0B
07
09
08
06
04
01
01
01
00
FF
00
03
07
06
0A
0D
12
14
FE
05
09
0C
0D
0E
0B
0C
08
05
04
07
05
04
03
02
04
02
00
01
02
04
07
07
08
05
10
13
01
08
0D
0F
08
09
09
06
06
06
04
03
02
02
01
05
08
05
04
07
04
01
04
00
00
03
06
0C
03
0E
10
0F
07
07
05
03
00
04
00
01
FE
00
05
01
04
09
09
07
08
07
09
05
05
05
04
02
01
0E
0B
07
03
FF
FE
FD
FC
FD
FD
01
FD
01
03
03
07
09
09
07
05
09
09
09
0C
0C
03
FB
00
07
06
FE
FB
F9
F8
FB
FB
FE
FF
00
02
FF
00
00
05
07
05
07
03
08
0B
0B
0E
0A
03
FC
00
FC
F7
F3
F2
F0
F3
F4
F8
FB
FB
00
FF
00
FE
03
03
07
04
05
04
03
0A
09
0B
0A
06
FE
FF
F8
F5
EF
EF
EE
ED
EB
ED
F2
F7
FB
02
04
04
05
07
07
07
03
FD
00
FF
05
05
0A
07
08
02
FE
F8
F2
F4
F4
F2
F0
EE
EB
ED
F2
F6
F6
F7
F8
FA
F6
F5
F2
F4
F8
FB
F9
FC
FC
FE
00
00
FD
FB
F9
F5
F5
F3
F3
F5
F4
F3
F4
F7
F6
F8
F4
F4
F0
F0
F6
FA
F8
FD
FD
FD
FE
FD
02
FE
FF
FF
FE
FD
FC
F8
FB
FA
F5
F9
F1
F5
FD
FD
FE
F6
F8
FD
F7
FA
FB
FA
FD
FD
00
02
01
FE
FE
FD
00
01
00
FF
02
FE
FF
FE
01
01
00
FF
03
FF
01
FE
FE
00
00
01
01
FE
01
00
00
FE
FF
00
FD
00
00
FF
04
02
01
FF
FF
01
FF
08
08
02
FF
FE
FE
FD
FF
FE
FF
00
00
FF
FC
FF
FE
FF
00
FF
00
02
06
08
07
07
07
03
07
05
07
FF
F9
F1
F3
F4
F9
FE
00
FF
FF
FE
FD
FD
FD
00
FD
FE
FE
01
08
08
08
0A
09
05
04
03
07
FF
FD
FA
F7
F6
EF
F3
FF
00
FD
FF
FF
FD
01
FC
FF
FC
04
04
06
09
07
07
06
00
01
01
03
05
FE
FB
FA
FD
FB
F8
F3
F7
FC
FD
FD
FE
00
03
FF
01
01
03
FF
04
01
05
01
01
02
02
00
FE
FC
FC
FF
01
02
00
02
FF
FD
FD
FB
FC
01
02
02
FD
01
FF
00
02
02
02
03
01
04
00
01
00
F9
F8
FC
FE
F8
EC
E8
EE
F6
FF
FF
FD
04
05
02
01
FD
00
01
00
04
01
02
06
04
02
FF
FC
F9
F9
F7
FA
F5
E9
EF
EB
F7
01
FD
FF
00
05
03
02
FE
FD
00
03
04
04
07
06
00
FD
FF
F8
F7
FB
F9
FC
F4
EC
EE
F6
FD
FD
FC
FC
00
01
02
FE
FC
FC
FE
01
01
05
03
03
FF
00
FC
F9
FB
FC
FC
F9
F7
F7
F7
F4
FC
01
FB
FF
FF
FB
FF
FF
FB
F8
FC
FF
FE
FC
FE
FB
FC
FE
FD
FB
F9
FA
FC
FA
F9
F6
F4
F7
FE
FD
FF
FD
FD
F7
FA
FC
F3
F3
F9
FA
FC
FE
FC
F4
F8
F9
FB
FA
FB
FC
FC
FA
FA
F6
FB
03
01
00
00
FF
FE
FA
F8
F5
F2
F2
F9
FB
FD
FF
FE
FC
F9
FC
FE
FF
01
FF
FC
FB
FA
04
0D
0F
0A
0A
04
FC
FA
FA
F3
F0
F4
F6
FF
01
04
04
08
06
00
FE
FC
FF
02
00
FA
FC
FF
0A
19
23
1D
0E
07
FF
FB
FC
F9
F9
F8
FD
05
07
09
0B
0A
07
FF
FD
FC
FF
04
FE
FD
01
03
07
17
1A
13
0D
03
FE
00
01
FF
00
01
04
05
08
0B
08
06
05
05
01
03
02
02
01
FE
01
05
0C
17
20
1E
11
08
FE
03
03
01
05
03
03
02
09
0D
0B
0C
08
04
00
02
FE
FE
FE
00
06
08
12
19
1E
1B
0D
0A
01
07
09
05
06
06
08
06
08
0D
0A
08
05
00
FF
FB
FE
FE
FD
FE
03
06
06
10
13
0C
0A
04
FF
06
09
05
09
0A
0A
05
08
07
06
03
FE
00
FC
02
02
01
FF
01
05
03
08
10
16
11
05
FE
FD
04
06
0A
08
09
05
09
04
07
06
05
07
03
02
04
07
02
03
05
05
06
02
07
0C
FE
03
FE
00
0B
09
0B
07
07
06
06
02
02
04
01
02
00
02
02
04
09
08
08
04
04
04
05
0D
06
01
FC
01
09
08
04
07
05
01
00
01
FF
00
FF
00
02
02
06
0A
0B
08
07
05
01
FF
07
0B
07
02
FC
00
07
04
04
04
03
02
00
00
00
02
03
05
00
05
07
0B
07
07
06
02
01
05
08
04
04
02
FC
FF
05
FD
FD
FC
FD
FB
FD
01
02
03
06
08
08
05
04
0B
0B
05
03
06
04
09
07
04
00
01
FC
01
FE
F6
F0
F3
F6
FA
F9
FC
FA
FF
02
05
03
06
0B
10
0C
04
09
0A
04
07
03
01
03
00
FC
01
FD
F7
F4
F4
F5
FA
F7
F5
F5
FD
00
FC
FD
FB
F9
00
FD
FA
FD
FD
FE
00
FF
FF
FD
FE
FF
FF
FC
FA
F7
F7
F7
F2
F0
EF
F4
F9
FF
FF
01
FB
F6
F8
F8
FC
FA
FE
FC
FE
FE
FF
00
FE
FC
00
FC
F6
F5
F4
F2
EB
E6
E4
ED
EF
F4
F1
FB
FA
F3
EF
EB
ED
ED
F3
F3
F7
FD
FB
02
02
00
04
03
04
03
02
02
04
01
04
01
03
01
01
02
02
03
03
00
04
01
02
04
00
01
02
00
00
00
02
03
04
04
01
02
01
06
07
03
07
04
03
03
06
01
FF
FF
02
02
03
FF
01
03
03
04
03
01
02
03
01
05
04
03
02
07
05
07
04
03
05
04
02
FF
01
FB
02
05
01
01
01
00
00
00
03
03
00
05
03
02
00
06
02
08
06
04
00
02
FE
F7
01
FA
EE
F0
F9
FB
01
FC
FB
00
00
03
02
04
02
02
05
FE
06
06
01
04
03
FE
FC
FB
F8
F0
F9
EB
E3
E6
F1
FD
02
FF
FA
FF
06
FC
FE
04
02
04
03
FF
01
02
FF
03
FB
F9
F5
F2
EC
E8
F6
EB
EA
E3
EF
F7
FD
FE
F6
04
09
F9
FC
00
01
04
01
FF
01
07
FF
00
F9
FE
F1
E7
F2
E8
EC
F0
E7
E6
F5
FB
00
02
F9
09
0D
FC
FE
01
02
05
05
FC
01
04
01
F7
FC
00
EC
F4
F6
E5
EC
F8
FA
F9
00
0A
03
00
F9
07
0B
FD
FC
00
FF
02
05
FD
04
FE
FF
FA
FF
00
F2
F7
EF
EE
EB
06
0B
05
10
15
04
09
03
06
0B
FF
FC
02
00
01
FF
04
06
F9
FE
F7
F8
F7
F2
F4
EE
F7
00
02
0D
13
20
1B
0A
08
0B
08
08
01
00
FF
00
01
00
07
07
F8
F8
F5
F0
F2
EE
E6
EC
F1
03
04
10
1A
24
14
0E
08
0F
08
06
04
02
01
FF
FF
FD
07
07
F6
F7
F7
EC
ED
F2
E6
EB
F2
02
08
15
1A
1E
1A
0F
0C
0B
08
06
00
02
05
01
00
01
06
04
F6
FF
F7
E8
EC
EA
E7
EB
EF
FE
0F
15
13
1A
11
18
11
09
05
03
FD
05
05
00
00
03
04
03
FD
00
EF
EC
E8
E6
E9
EF
EC
06
11
14
0D
18
12
14
10
00
F9
FC
FD
09
09
FF
02
02
01
00
04
FD
EB
F4
E7
E9
EA
EE
F0
06
0E
12
0E
10
0A
0C
03
F3
F7
F9
FD
08
05
FE
01
00
FF
FF
06
FD
EF
F2
EE
E3
F3
F4
F4
FE
0F
13
06
07
00
02
F9
EE
F5
F3
F8
04
07
00
04
01
00
05
06
FC
F8
FC
F4
F0
FE
01
F3
01
0A
09
FC
FD
F4
F9
EF
ED
F7
F6
F7
01
0A
03
07
00
00
03
06
FE
01
01
01
04
09
04
F8
FB
FF
04
FB
F9
ED
F5
EC
E9
F4
FB
F9
05
09
02
0A
05
FF
03
09
05
04
0B
0B
11
09
04
F5
F3
F3
F8
F1
F2
ED
F0
E2
E4
EE
FD
FC
02
04
01
07
08
02
05
05
0B
08
10
11
15
08
F7
EE
E5
E0
E9
ED
F3
E8
E1
E7
EE
F9
01
FC
03
05
02
09
07
06
07
07
04
0B
12
11
12
04
EA
EC
D7
D1
E4
EF
EB
E2
E7
F5
FB
FE
FE
FC
02
05
04
09
05
06
08
06
FE
0E
0B
0E
08
FA
E0
E8
D5
DB
E1
E9
E2
E8
F9
01
F8
FF
FE
04
04
00
03
09
01
03
06
0D
03
0A
0A
04
FA
EE
D6
E2
E0
DF
E0
E4
E6
F5
02
02
F8
FD
FE
05
09
00
04
04
00
05
03
08
06
08
FE
FA
F6
DD
D4
DF
DC
E5
E4
E1
F0
03
0B
04
FC
04
01
02
03
01
02
03
02
FE
02
03
FF
00
EE
F5
F3
DF
DA
E2
ED
ED
EB
E1
F7
03
08
FB
FC
03
FF
02
03
03
01
02
FF
01
00
00
FE
F9
F2
F2
F2
E7
F1
F3
F3
F3
F1
F0
F6
FE
03
FE
FE
02
00
03
04
01
03
00
00
01
04
00
FF
FE
00
01
00
F8
F9
FB
FC
FD
F7
F4
FA
FD
00
FF
03
03
02
05
03
04
01
00
03
02
03
02
FF
00
04
06
04
04
04
02
03
01
02
01
04
02
01
02
01
02
02
01
02
01
FF
FE
FE
FE
FE
01
00
02
FF
FF
FC
01
01
01
01
FE
FF
FC
FC
FC
FE
00
00
02
FF
00
00
00
FC
FF
FE
FE
FF
FE
FE
FF
FE
FB
FB
FF
05
03
0F
08
FF
FF
FF
FD
01
FD
FE
FF
FF
FC
FE
00
FF
00
FF
FF
FE
FC
FE
03
00
00
FE
FD
09
11
15
17
0D
FC
FC
FF
FF
FF
00
00
FE
00
FD
FF
FE
FF
00
FD
FD
00
00
10
11
0D
0C
0C
11
14
1A
18
09
02
FA
FF
FD
FD
00
01
FF
FF
FF
FF
FD
FC
FA
F5
FF
0A
06
0E
19
16
13
13
16
19
1A
18
10
09
FF
F8
FB
F9
FB
FF
FF
FF
FD
01
FD
01
FC
F1
F9
03
06
05
08
12
17
12
0F
12
15
0E
0D
0C
05
FB
FA
FA
F4
F8
FA
FF
FF
02
FD
01
01
F8
F5
01
02
FE
FE
08
0D
10
0C
0E
11
11
12
0E
11
09
01
F8
F3
ED
F8
FB
FE
F7
FD
00
04
FF
F9
FA
01
04
FE
01
06
0E
0E
0E
0F
10
0E
0A
0D
07
00
F8
E8
E4
EF
F5
FC
FC
FE
FD
04
08
FE
FD
FF
04
09
09
06
0D
10
0F
0E
10
0D
08
07
04
00
F1
E5
E1
E6
F3
FD
F2
FB
FE
FC
07
03
FD
F6
FD
05
0A
0D
09
0D
0E
0A
07
05
05
04
FF
01
F9
EC
E5
EB
FD
FD
EC
FA
FE
F6
04
04
04
F8
F9
FF
06
08
02
03
07
02
02
FF
04
01
FB
FD
FA
F2
EE
F4
F2
F8
EE
FE
F6
F6
FA
03
05
FF
FB
FC
01
05
07
00
FC
03
FE
F8
FE
FF
03
FA
F6
F6
FA
F9
F5
FC
F9
FD
F7
F8
FD
FE
01
01
FE
FF
FA
F9
FC
F3
EC
F2
FB
F3
FB
FE
FB
F7
F4
F3
FD
FE
FA
FA
F3
FC
F7
F5
FA
F9
F7
F6
F9
FF
F2
E5
E7
E5
E0
E6
EC
F2
EE
F3
F2
F6
F0
F5
03
05
04
04
F4
FC
F9
F4
F4
F3
F2
EB
E9
E7
E4
DF
E2
EE
F2
F0
EA
EA
EF
F0
EC
F4
F9
FE
02
0E
0F
0C
FF
F8
FD
F9
F7
FA
F4
EB
E5
DD
D4
D6
DE
EC
F4
F0
EB
EB
F1
F3
F3
F5
03
11
1B
20
1C
11
0F
FD
02
FD
F6
F8
FE
F6
EA
E3
DD
DB
DC
E9
F2
EB
F1
F2
F4
F5
FE
05
0D
13
24
21
1F
15
08
FD
06
05
FE
FD
FE
FA
ED
EF
EE
ED
F2
F9
FD
FE
FA
FC
FB
FB
02
0A
0F
17
24
29
26
19
05
FC
03
09
07
04
04
FD
F5
EE
F2
F9
01
04
05
04
02
02
05
07
09
16
15
14
14
19
17
15
13
FB
FF
FE
05
03
04
02
FE
F6
F9
F2
FC
03
04
08
07
08
0E
13
1B
22
24
1E
14
14
15
0B
0D
02
07
03
02
FC
FD
FB
FC
FB
FC
FC
F9
FB
03
09
0C
14
1C
1D
17
18
20
22
1A
18
10
07
0F
03
10
0D
08
05
FE
F8
FD
FF
00
05
02
00
FE
02
0A
16
1E
1C
18
15
16
16
09
05
FE
03
13
FF
11
0F
0C
08
08
03
FF
FC
00
FE
FC
00
FA
03
0C
12
13
16
1B
13
14
10
10
06
01
04
06
FD
06
06
05
02
04
03
02
05
04
05
03
01
07
0A
0D
0F
13
12
0E
0F
0C
05
08
07
04
01
00
FC
F9
F1
EF
F3
F8
FA
FE
02
07
09
09
06
06
08
08
0D
0B
08
06
07
07
07
0A
08
00
FA
01
FB
FE
F1
E0
E0
E8
ED
EF
F2
FA
01
04
02
04
09
08
0B
0F
0B
00
03
00
04
04
04
04
FE
FF
FD
FC
F9
F2
E6
E6
EB
E9
E6
E4
EE
F7
FC
04
06
06
0C
0D
08
01
FA
FA
01
FF
FF
FE
FD
01
F4
F8
EA
E5
DD
E9
E7
DD
CC
CD
D6
E3
EA
F6
00
FF
F6
EE
E7
E6
EB
EF
EF
EA
EF
F5
FD
01
FF
FF
00
00
00
00
01
02
00
FE
01
FF
00
01
FF
03
03
00
03
02
01
04
FF
01
FF
03
01
F9
01
FF
01
02
03
01
03
FF
FF
02
FE
00
FD
00
FE
FF
01
02
03
02
05
03
04
00
01
01
02
01
FF
03
02
02
03
02
00
02
00
FF
FD
02
FD
FB
FE
03
03
04
01
04
06
03
05
03
04
00
FF
02
00
FF
03
00
02
01
03
00
01
FF
FD
FC
FD
FE
FF
03
00
FF
FF
01
03
01
01
01
00
00
02
FF
02
00
03
00
02
02
FE
FD
FE
01
FF
03
FD
01
FA
FC
03
00
03
04
03
02
05
02
04
04
00
00
00
00
03
00
01
02
02
01
06
04
04
00
01
F9
F8
FA
01
01
06
02
07
06
06
03
04
01
00
03
FE
02
00
02
00
03
06
09
0B
05
02
FF
FC
F0
F0
F2
F9
FA
08
05
06
05
03
03
06
03
04
00
FF
FF
02
05
03
02
05
09
0A
05
0D
01
FA
ED
EC
F2
F6
FD
FF
01
07
03
01
02
05
03
01
03
00
02
00
04
01
FF
04
06
0B
0B
07
FE
F7
FD
FB
FC
01
FD
FF
0A
06
04
03
01
00
04
03
02
02
01
00
FF
FE
FE
05
08
0C
0C
0C
07
07
06
04
04
00
04
05
06
FF
03
03
03
04
01
02
FF
00
02
00
FC
03
07
06
0D
0B
06
0A
0A
03
02
03
05
0F
0C
0D
03
00
01
02
05
00
FF
FF
FF
FF
00
03
FF
FF
01
04
05
08
0A
04
01
FB
F9
FF
10
17
13
0A
08
FC
07
02
FF
FE
FD
FD
FF
02
00
03
01
01
01
03
08
07
04
00
01
FE
FE
04
18
1D
15
0F
08
08
07
06
01
02
FE
FD
FF
02
01
02
02
02
02
01
06
07
06
03
06
00
FC
00
13
1E
1C
14
0C
0A
07
03
01
00
FC
FE
00
00
01
FF
02
03
01
07
0A
0B
0E
05
FC
FC
