10
D9
D4
06
FE
E2
1A
2C
0F
E1
E1
C6
11
F0
BC
1F
D2
BC
EE
DB
16
E1
14
E1
0A
0C
19
0D
0B
EA
0F
E8
E1
01
1D
0A
12
1A
F3
F7
EE
F7
00
F8
DE
18
04
2C
FE
0A
1B
19
DC
D0
16
1A
25
15
00
0D
03
F5
14
09
17
FE
FA
08
F2
DE
E8
E9
F9
0F
01
CF
05
F5
C5
CF
E4
F5
14
01
C6
C5
C4
BB
CD
E3
10
15
E9
0F
12
E2
D6
F0
F2
DC
D8
01
02
D5
F5
E5
F3
FD
25
15
00
1C
05
F9
F5
F7
08
25
32
00
FA
1D
05
0D
EC
E4
00
08
E7
0F
20
22
25
18
0C
00
15
EE
1F
03
01
04
22
09
81
AA
18
9D
C1
2D
BA
C7
EC
FC
20
52
E4
4D
3D
DC
2B
1E
F3
F4
05
0E
DD
F1
08
C1
D6
19
22
0B
12
E9
06
08
F3
E9
F1
ED
05
F2
25
FD
D0
25
2C
CE
25
F4
01
03
FB
C7
FF
0D
0D
DC
FA
12
05
EA
3B
2E
0C
F2
DA
BA
1A
D7
DB
02
13
F7
F0
F5
FF
15
EF
15
F2
F8
08
15
1A
FC
F2
17
10
21
00
0D
F7
17
EB
07
E9
15
F8
05
F3
ED
FA
14
01
F4
E8
F6
E6
04
0D
FE
F7
11
F1
18
FE
1A
09
04
FA
0A
0D
07
F7
19
06
F4
08
F0
E3
FA
00
E6
12
17
08
FF
F8
09
1C
E4
EE
07
FD
00
DE
EF
E1
F8
CB
DE
EC
B2
EC
04
D1
E7
E5
DF
0A
E1
0F
07
FE
0C
0C
09
F8
F5
F3
0E
FF
1F
00
05
F5
0F
14
03
1B
EF
DF
E6
0D
F1
E4
F7
13
1A
1B
D6
BF
EB
00
CD
FF
CC
FD
1A
F2
0D
03
04
14
0B
21
1E
15
17
16
E9
18
E8
1C
0F
04
07
02
11
F9
0A
E1
11
25
E9
F4
12
1A
1E
11
29
F9
16
23
F9
E3
15
01
1A
18
1E
13
20
0C
F9
E3
CA
EC
EC
E4
FA
D8
FD
FB
F8
EC
F3
0B
FE
19
0E
DF
01
20
E6
04
FE
F7
F2
08
FE
1A
E9
0D
F0
DE
F8
D9
07
E7
17
E0
28
DA
1B
FE
F1
18
0D
0C
FB
FF
0A
F4
F5
14
11
17
05
ED
0F
10
FB
0F
14
F1
EE
EE
F5
F5
05
1A
16
01
09
F4
04
0B
1C
F5
13
1E
FF
04
14
DD
E5
15
1A
EA
FD
06
1C
10
F7
08
FC
FE
09
19
14
03
1B
EC
E5
F0
F3
FD
02
DC
F9
F3
E3
F7
ED
F6
0F
13
FA
07
07
26
08
16
11
F0
1A
DF
F9
FE
19
17
FA
EA
0C
DF
D8
E5
04
F3
FA
EB
00
ED
EA
08
1C
F5
09
0D
1B
1C
F3
09
FD
FE
F1
E3
EC
17
12
0A
FC
11
FF
0C
FB
1D
17
F7
F9
09
03
09
0A
EF
FC
EC
DC
EC
F8
E5
0C
0A
F4
E1
EA
10
F4
0D
F7
0E
ED
34
0A
B6
46
DC
B7
F2
B0
C1
B4
F5
3B
F2
3A
37
F8
30
2C
4D
29
D7
4B
0D
DC
35
E2
E5
E9
17
F0
FE
F2
09
E0
0C
06
CD
D7
10
EB
E7
F9
D2
EA
05
E0
F2
F1
02
EC
EA
F7
00
22
DA
DD
E6
D4
E6
1B
E4
FD
09
2E
19
E1
28
F3
F6
20
03
07
CB
FB
10
B6
C5
EA
E2
BA
C6
F6
1B
FF
FF
F5
08
E6
FF
F8
0D
E8
0E
E5
F0
12
ED
DC
04
F6
DD
12
DC
E3
FF
00
D8
DC
28
27
16
EE
F6
04
DB
F4
27
15
06
24
F4
17
32
D5
FE
22
07
F3
F0
14
1F
0D
12
22
2A
0D
08
EF
0C
01
FD
0F
0B
1F
1F
01
F1
F9
EF
D7
BD
BE
FB
EE
08
C5
0E
F1
F5
F9
03
0E
1A
FE
09
1E
FD
0E
05
F7
0A
EB
FC
F3
E9
F0
1A
00
EB
1B
0F
FF
F1
F9
E9
E6
FB
08
19
28
EB
C7
FF
E5
E3
D4
CC
0D
1E
0A
08
07
0F
12
11
10
0C
FD
2C
0E
16
0B
E8
2D
FD
F0
00
FE
DE
48
15
18
40
33
25
EB
D5
23
C6
D7
F6
CD
C6
16
0A
ED
EF
16
1D
F2
0D
31
00
F1
12
05
E7
F6
FF
EF
06
1C
EA
DB
F5
E6
D0
FF
18
0D
13
CE
DD
F8
E3
F0
15
FC
FA
14
FE
E0
14
E2
F6
F6
E7
FB
F4
03
0A
13
D1
FF
01
D8
EA
D1
FD
28
0E
CF
F4
22
FB
11
21
08
14
11
02
2D
FD
1A
40
46
DF
FC
05
D8
DE
EA
F4
E2
FE
A7
A1
B9
E9
CA
BD
E9
EC
E2
0B
24
ED
1F
28
F0
01
F8
25
24
18
20
12
FF
1D
FC
04
04
36
01
F0
0A
F0
0A
07
FE
D5
FA
E3
DF
F3
D5
C3
E8
D0
C4
CB
FA
01
CA
04
25
D1
0B
22
05
1F
26
00
22
26
39
36
3E
F9
DF
E1
D7
DB
E3
04
DA
F5
E8
F6
D7
1C
F0
06
32
FE
DA
E7
F5
0B
F1
28
F8
23
25
10
E9
12
3A
E2
2B
26
EF
03
1E
12
E5
E9
F3
F6
CE
F2
AA
CB
1F
0E
CD
0D
E3
BA
D1
DC
DA
CD
DC
CF
EC
E1
CA
31
EC
CF
F0
EB
10
09
DA
0E
F6
D1
13
E3
15
0E
0C
F1
F2
F9
01
0F
25
20
17
16
21
EC
28
E7
0A
EC
F4
1C
EC
E7
06
01
E9
FE
CC
C6
09
BD
E9
05
E7
C6
E2
FF
02
F7
21
FF
FA
04
1A
17
04
1C
F5
01
F6
1F
F3
11
23
DF
F2
18
C6
F6
DF
EF
F0
EB
D9
D2
D5
DF
C2
E9
EE
DE
C9
EF
13
FB
EB
D8
E0
D3
DC
DD
DF
E8
07
D9
E3
F8
0E
13
E8
10
2B
2F
18
17
F8
EE
08
12
05
3C
22
25
0A
26
F7
12
04
09
F0
05
31
23
FB
0A
0D
2E
0A
0E
16
07
20
12
1F
F8
27
