1C
FD
EA
F5
32
DC
63
4B
02
B4
E3
56
AD
25
16
CD
2F
4D
F4
0F
90
6F
37
0B
5D
D6
DC
B6
81
A0
E7
11
11
25
2B
37
E8
34
3A
28
30
43
C8
07
42
3A
16
2F
C5
1C
24
26
EE
34
0B
2A
33
C4
01
EF
A4
18
B6
30
2F
EE
11
0C
19
DE
B1
AF
